const unsigned char model_tflite[] = {

    0x1c, 0x00, 0x00, 0x00, 0x54, 0x46, 0x4c, 0x33, 0x14, 0x00, 0x20, 0x00, 
    0x1c, 0x00, 0x18, 0x00, 0x14, 0x00, 0x10, 0x00, 0x0c, 0x00, 0x00, 0x00, 
    0x08, 0x00, 0x04, 0x00, 0x14, 0x00, 0x00, 0x00, 0x1c, 0x00, 0x00, 0x00, 
    0x8c, 0x00, 0x00, 0x00, 0xe4, 0x00, 0x00, 0x00, 0x30, 0x2f, 0x00, 0x00, 
    0x40, 0x2f, 0x00, 0x00, 0x30, 0x38, 0x00, 0x00, 0x03, 0x00, 0x00, 0x00, 
    0x01, 0x00, 0x00, 0x00, 0x04, 0x00, 0x00, 0x00, 0x8a, 0xce, 0xff, 0xff, 
    0x0c, 0x00, 0x00, 0x00, 0x1c, 0x00, 0x00, 0x00, 0x40, 0x00, 0x00, 0x00, 
    0x0f, 0x00, 0x00, 0x00, 0x73, 0x65, 0x72, 0x76, 0x69, 0x6e, 0x67, 0x5f, 
    0x64, 0x65, 0x66, 0x61, 0x75, 0x6c, 0x74, 0x00, 0x01, 0x00, 0x00, 0x00, 
    0x04, 0x00, 0x00, 0x00, 0x90, 0xff, 0xff, 0xff, 0x11, 0x00, 0x00, 0x00, 
    0x04, 0x00, 0x00, 0x00, 0x0e, 0x00, 0x00, 0x00, 0x73, 0x6f, 0x66, 0x74, 
    0x6d, 0x61, 0x78, 0x5f, 0x6f, 0x75, 0x74, 0x70, 0x75, 0x74, 0x00, 0x00, 
    0x01, 0x00, 0x00, 0x00, 0x04, 0x00, 0x00, 0x00, 0x9e, 0xd0, 0xff, 0xff, 
    0x04, 0x00, 0x00, 0x00, 0x0b, 0x00, 0x00, 0x00, 0x69, 0x6e, 0x70, 0x75, 
    0x74, 0x5f, 0x6c, 0x61, 0x79, 0x65, 0x72, 0x00, 0x02, 0x00, 0x00, 0x00, 
    0x34, 0x00, 0x00, 0x00, 0x04, 0x00, 0x00, 0x00, 0xdc, 0xff, 0xff, 0xff, 
    0x14, 0x00, 0x00, 0x00, 0x04, 0x00, 0x00, 0x00, 0x13, 0x00, 0x00, 0x00, 
    0x43, 0x4f, 0x4e, 0x56, 0x45, 0x52, 0x53, 0x49, 0x4f, 0x4e, 0x5f, 0x4d, 
    0x45, 0x54, 0x41, 0x44, 0x41, 0x54, 0x41, 0x00, 0x08, 0x00, 0x0c, 0x00, 
    0x08, 0x00, 0x04, 0x00, 0x08, 0x00, 0x00, 0x00, 0x13, 0x00, 0x00, 0x00, 
    0x04, 0x00, 0x00, 0x00, 0x13, 0x00, 0x00, 0x00, 0x6d, 0x69, 0x6e, 0x5f, 
    0x72, 0x75, 0x6e, 0x74, 0x69, 0x6d, 0x65, 0x5f, 0x76, 0x65, 0x72, 0x73, 
    0x69, 0x6f, 0x6e, 0x00, 0x15, 0x00, 0x00, 0x00, 0x48, 0x2e, 0x00, 0x00, 
    0x40, 0x2e, 0x00, 0x00, 0x30, 0x22, 0x00, 0x00, 0x20, 0x02, 0x00, 0x00, 
    0x10, 0x01, 0x00, 0x00, 0xfc, 0x00, 0x00, 0x00, 0xe8, 0x00, 0x00, 0x00, 
    0xe0, 0x00, 0x00, 0x00, 0xd8, 0x00, 0x00, 0x00, 0xd0, 0x00, 0x00, 0x00, 
    0xc8, 0x00, 0x00, 0x00, 0xc0, 0x00, 0x00, 0x00, 0xb8, 0x00, 0x00, 0x00, 
    0xb0, 0x00, 0x00, 0x00, 0xa8, 0x00, 0x00, 0x00, 0xa0, 0x00, 0x00, 0x00, 
    0x98, 0x00, 0x00, 0x00, 0x90, 0x00, 0x00, 0x00, 0x88, 0x00, 0x00, 0x00, 
    0x68, 0x00, 0x00, 0x00, 0x04, 0x00, 0x00, 0x00, 0x6a, 0xd1, 0xff, 0xff, 
    0x04, 0x00, 0x00, 0x00, 0x54, 0x00, 0x00, 0x00, 0x0c, 0x00, 0x00, 0x00, 
    0x08, 0x00, 0x0e, 0x00, 0x08, 0x00, 0x04, 0x00, 0x08, 0x00, 0x00, 0x00, 
    0x10, 0x00, 0x00, 0x00, 0x24, 0x00, 0x00, 0x00, 0x00, 0x00, 0x06, 0x00, 
    0x08, 0x00, 0x04, 0x00, 0x06, 0x00, 0x00, 0x00, 0x04, 0x00, 0x00, 0x00, 
    0x00, 0x00, 0x00, 0x00, 0x00, 0x00, 0x0a, 0x00, 0x10, 0x00, 0x0c, 0x00, 
    0x08, 0x00, 0x04, 0x00, 0x0a, 0x00, 0x00, 0x00, 0x02, 0x00, 0x00, 0x00, 
    0x02, 0x00, 0x00, 0x00, 0x04, 0x00, 0x00, 0x00, 0x06, 0x00, 0x00, 0x00, 
    0x32, 0x2e, 0x31, 0x34, 0x2e, 0x30, 0x00, 0x00, 0xca, 0xd1, 0xff, 0xff, 
    0x04, 0x00, 0x00, 0x00, 0x10, 0x00, 0x00, 0x00, 0x31, 0x2e, 0x31, 0x34, 
    0x2e, 0x30, 0x00, 0x00, 0x00, 0x00, 0x00, 0x00, 0x00, 0x00, 0x00, 0x00, 
    0xb4, 0xc9, 0xff, 0xff, 0xb8, 0xc9, 0xff, 0xff, 0xbc, 0xc9, 0xff, 0xff, 
    0xc0, 0xc9, 0xff, 0xff, 0xc4, 0xc9, 0xff, 0xff, 0xc8, 0xc9, 0xff, 0xff, 
    0xcc, 0xc9, 0xff, 0xff, 0xd0, 0xc9, 0xff, 0xff, 0xd4, 0xc9, 0xff, 0xff, 
    0xd8, 0xc9, 0xff, 0xff, 0xdc, 0xc9, 0xff, 0xff, 0xe0, 0xc9, 0xff, 0xff, 
    0x16, 0xd2, 0xff, 0xff, 0x04, 0x00, 0x00, 0x00, 0x04, 0x00, 0x00, 0x00, 
    0xcd, 0xcc, 0x4c, 0x3e, 0x26, 0xd2, 0xff, 0xff, 0x04, 0x00, 0x00, 0x00, 
    0x04, 0x00, 0x00, 0x00, 0x00, 0x00, 0x00, 0x00, 0x36, 0xd2, 0xff, 0xff, 
    0x04, 0x00, 0x00, 0x00, 0x00, 0x01, 0x00, 0x00, 0x0a, 0x8c, 0xbc, 0xbd, 
    0x96, 0x9b, 0xd3, 0x3d, 0xfd, 0x77, 0x9c, 0xbe, 0xb3, 0x8b, 0x43, 0xbe, 
    0x9e, 0x18, 0x55, 0xbe, 0x80, 0x1a, 0x8f, 0xbe, 0x9b, 0x31, 0x9c, 0x3e, 
    0x79, 0xc3, 0xca, 0x3e, 0xce, 0xdf, 0x62, 0x3d, 0xf3, 0x5a, 0x82, 0xbe, 
    0x55, 0x84, 0x9e, 0x3e, 0x91, 0x63, 0xca, 0x3e, 0x05, 0x1d, 0x8f, 0xbe, 
    0x6d, 0x02, 0x95, 0xbc, 0x6f, 0xac, 0xd0, 0xbd, 0x57, 0x97, 0x9a, 0x3d, 
    0xb3, 0x21, 0x8d, 0x3e, 0x35, 0x50, 0xb6, 0x3e, 0x88, 0x5b, 0xcb, 0x3e, 
    0x33, 0xbe, 0x11, 0x3e, 0x46, 0x31, 0xac, 0xbd, 0xfa, 0xb0, 0x9d, 0x3e, 
    0x65, 0xb8, 0x0a, 0x3e, 0x76, 0x3c, 0xc5, 0x3e, 0x74, 0xdd, 0xa3, 0x3e, 
    0x4b, 0x86, 0x85, 0xbe, 0x9a, 0x78, 0x7a, 0xbe, 0x04, 0xdb, 0x92, 0xbe, 
    0x2c, 0x32, 0xba, 0x3e, 0xe9, 0x56, 0xa7, 0xbd, 0xae, 0x7d, 0xd4, 0x3e, 
    0x5a, 0xc7, 0xa7, 0xbe, 0xb1, 0x62, 0x4c, 0xbe, 0x3c, 0xdb, 0x82, 0xbe, 
    0xcb, 0x9f, 0xad, 0xbe, 0x4e, 0x37, 0xc5, 0x3d, 0x4d, 0x39, 0xb6, 0x3c, 
    0xe1, 0x7c, 0x8c, 0xbe, 0x86, 0xe6, 0xa8, 0x3d, 0x7d, 0xef, 0xc4, 0xbe, 
    0x9f, 0x02, 0x91, 0xbe, 0x18, 0x03, 0xb8, 0xbe, 0x55, 0x69, 0x63, 0xbe, 
    0xb0, 0x9e, 0x8e, 0x3e, 0x14, 0xdf, 0x96, 0xbe, 0x25, 0x66, 0xcd, 0x3e, 
    0xa0, 0x29, 0x9a, 0x3e, 0xac, 0xd3, 0xc1, 0xbe, 0x9d, 0x5b, 0xff, 0x3d, 
    0xd2, 0x4b, 0x82, 0x3e, 0xdd, 0x9b, 0x81, 0xbd, 0x2b, 0x93, 0xd3, 0xbe, 
    0xba, 0x03, 0xc4, 0x3e, 0x35, 0xa0, 0x03, 0x3e, 0x84, 0x9a, 0xc6, 0xbe, 
    0x5c, 0xaf, 0x12, 0xbe, 0x7f, 0x4d, 0xd1, 0x3e, 0x95, 0xae, 0x73, 0x3e, 
    0x4b, 0xc0, 0xcb, 0x3e, 0x98, 0xec, 0xa4, 0xbd, 0x6b, 0xb9, 0x86, 0xbe, 
    0xea, 0xea, 0x89, 0x3e, 0x89, 0xda, 0x52, 0x3e, 0x6d, 0x80, 0xc4, 0x3d, 
    0x42, 0xd3, 0xff, 0xff, 0x04, 0x00, 0x00, 0x00, 0x00, 0x20, 0x00, 0x00, 
    0x9e, 0xbd, 0xb7, 0x3d, 0x94, 0xe3, 0xea, 0xbb, 0x6f, 0x6f, 0xd3, 0xbd, 
    0x3e, 0x32, 0x69, 0x3b, 0x04, 0x34, 0x3f, 0xbd, 0x05, 0xf6, 0xb8, 0xbd, 
    0x55, 0xc7, 0x51, 0x3e, 0x29, 0x21, 0xa5, 0xbd, 0x61, 0x42, 0x02, 0xbe, 
    0x41, 0x33, 0xa1, 0x3e, 0xff, 0x5b, 0x05, 0xbe, 0xed, 0x6b, 0xbe, 0x3d, 
    0x41, 0xbc, 0x88, 0xbd, 0x02, 0x92, 0x28, 0x3e, 0x76, 0x28, 0x80, 0x3d, 
    0x34, 0x51, 0xad, 0xbe, 0x91, 0x06, 0x89, 0xbd, 0x71, 0xc7, 0xb4, 0xbc, 
    0xaf, 0xed, 0xad, 0xbd, 0x2f, 0x82, 0x1b, 0x3d, 0xd5, 0xd5, 0x79, 0x3e, 
    0x66, 0x99, 0x09, 0x3a, 0x01, 0x6e, 0xf1, 0x3d, 0x74, 0x4c, 0x6c, 0x3e, 
    0x99, 0xc2, 0xc5, 0x3d, 0xf9, 0x4a, 0x54, 0x3e, 0x39, 0x19, 0x9a, 0x3e, 
    0x9a, 0x6a, 0xa7, 0xbe, 0x04, 0x70, 0x5b, 0xbe, 0x43, 0xbf, 0xee, 0xbc, 
    0x5e, 0xac, 0x16, 0xbd, 0x0e, 0xc2, 0x60, 0xbd, 0x39, 0x0b, 0xbf, 0x3d, 
    0xf9, 0x17, 0x83, 0xbe, 0x97, 0xb1, 0x17, 0x3d, 0x23, 0x6c, 0x0f, 0x3d, 
    0x7e, 0xb6, 0x67, 0x3e, 0x6a, 0xee, 0x80, 0x3e, 0xc5, 0x26, 0x56, 0x3e, 
    0xff, 0x5d, 0x56, 0x3d, 0x39, 0xbf, 0x51, 0x3d, 0xce, 0xdb, 0x1b, 0x3e, 
    0xb5, 0x1c, 0x6d, 0x3d, 0x85, 0xda, 0x36, 0x3e, 0x5f, 0xc9, 0x96, 0xbd, 
    0x4b, 0x54, 0x8a, 0x3d, 0xe7, 0x41, 0x5f, 0xbe, 0x9a, 0xf2, 0x9b, 0x3d, 
    0x98, 0xca, 0x61, 0xbe, 0x0d, 0xe3, 0x1d, 0xbd, 0x50, 0xf8, 0x64, 0xbb, 
    0x8b, 0x3c, 0x3b, 0xbe, 0xc6, 0xc9, 0xa3, 0x3d, 0x02, 0x6e, 0x28, 0x3e, 
    0x2b, 0x45, 0x8d, 0x3e, 0xe4, 0xa7, 0xd1, 0x3c, 0xe3, 0xd2, 0xd6, 0xbd, 
    0x72, 0x24, 0x7a, 0xbe, 0x8e, 0x78, 0xc5, 0x3d, 0x70, 0x2d, 0xbb, 0x3d, 
    0x20, 0xe5, 0xb3, 0xbe, 0x42, 0x42, 0x68, 0xbe, 0xe7, 0xbc, 0xba, 0xbe, 
    0x0f, 0x22, 0x98, 0xbd, 0x32, 0x1c, 0x15, 0xbe, 0x60, 0x6a, 0x8a, 0xbd, 
    0x53, 0x29, 0xa0, 0x3e, 0x4e, 0xc5, 0x75, 0x3e, 0x3b, 0xf3, 0x73, 0xbe, 
    0xc6, 0xaa, 0xd5, 0xbd, 0x6d, 0x59, 0x86, 0xbe, 0xb4, 0xe4, 0x63, 0xbd, 
    0x36, 0x6e, 0x26, 0x3e, 0x2c, 0x45, 0x5b, 0xbe, 0x9d, 0xc9, 0x0e, 0xbe, 
    0x1c, 0x18, 0x18, 0xbd, 0x20, 0x05, 0xa7, 0xbd, 0xc4, 0xbb, 0x69, 0xbe, 
    0x9d, 0x0e, 0x97, 0x3d, 0xcf, 0xef, 0x33, 0x3e, 0x10, 0x34, 0x8a, 0x3d, 
    0x6d, 0xf2, 0x93, 0xbd, 0x82, 0xec, 0x09, 0x3e, 0x87, 0x6f, 0x83, 0x3d, 
    0x1c, 0x0e, 0xbf, 0xbd, 0x9f, 0xc4, 0x01, 0xbe, 0x65, 0x57, 0x50, 0xbd, 
    0x92, 0xb0, 0x55, 0x3e, 0x81, 0x94, 0xbd, 0x3c, 0x4e, 0x8f, 0x38, 0xbe, 
    0xe9, 0x6e, 0x8f, 0xbe, 0x96, 0xb6, 0x5a, 0xbe, 0x30, 0xba, 0x9b, 0x3e, 
    0x9b, 0x55, 0xc2, 0xbd, 0x3f, 0x74, 0xca, 0xbe, 0xcf, 0x3a, 0x24, 0xbe, 
    0x67, 0x5b, 0x01, 0x3c, 0x05, 0x61, 0x2b, 0xbe, 0xea, 0x73, 0x28, 0xbe, 
    0x82, 0x3d, 0x8a, 0xbe, 0xaa, 0xc2, 0x15, 0xbe, 0x9b, 0xc3, 0x0a, 0x3e, 
    0x16, 0x2a, 0xba, 0xbe, 0xb7, 0x83, 0x8f, 0xbd, 0xf9, 0x96, 0xe5, 0x3d, 
    0xe1, 0xab, 0xcd, 0x3e, 0x9d, 0x3f, 0xb8, 0x3d, 0x68, 0x3c, 0x80, 0xbe, 
    0x65, 0xa6, 0xd1, 0xbd, 0xff, 0xb3, 0x4f, 0x3e, 0x96, 0x4d, 0x36, 0x3d, 
    0x47, 0x79, 0x48, 0x3e, 0x36, 0x91, 0xde, 0xbd, 0x12, 0x06, 0xbe, 0xbd, 
    0x4e, 0xf6, 0x53, 0xbd, 0xea, 0x3a, 0x90, 0xbd, 0x99, 0xde, 0x12, 0xbe, 
    0x89, 0xd5, 0xf6, 0x3d, 0x7e, 0x01, 0x93, 0x3e, 0x5f, 0x90, 0xb2, 0xbd, 
    0x6a, 0xf8, 0x9f, 0xbd, 0x75, 0xb8, 0x90, 0x3e, 0x51, 0x7d, 0xec, 0xbc, 
    0xa2, 0x5c, 0xac, 0x3e, 0xf1, 0x42, 0x58, 0x3d, 0x3d, 0xcf, 0x88, 0x3d, 
    0x09, 0x81, 0x0f, 0xbe, 0xf2, 0xee, 0xd5, 0x3c, 0x0e, 0xda, 0xb1, 0xbe, 
    0xff, 0xc2, 0x6d, 0x3e, 0xdf, 0x05, 0xdf, 0x3c, 0x59, 0xb3, 0x30, 0x3e, 
    0x11, 0x4d, 0x47, 0x3e, 0xbf, 0x1d, 0x86, 0xbe, 0xd3, 0xd5, 0xe6, 0xbd, 
    0xb5, 0x67, 0x0b, 0x3d, 0xae, 0xc8, 0x31, 0x3e, 0x00, 0x4f, 0xba, 0xbd, 
    0x29, 0x13, 0x22, 0xbe, 0xaf, 0xce, 0x3d, 0xbe, 0x7e, 0x94, 0x5d, 0xbc, 
    0xc9, 0x99, 0x82, 0x3e, 0x0d, 0xc3, 0xb2, 0x3e, 0xfa, 0x35, 0xf5, 0x3d, 
    0x1d, 0x32, 0x82, 0xbd, 0x49, 0xd2, 0x2a, 0x3e, 0x70, 0xde, 0x4b, 0xbd, 
    0x24, 0x18, 0x7c, 0xbc, 0x96, 0x16, 0xb4, 0xbd, 0xd6, 0x5a, 0x9a, 0xbe, 
    0x9a, 0x64, 0x7c, 0x3d, 0x26, 0xfe, 0xb5, 0x3e, 0x19, 0x32, 0x2e, 0x3d, 
    0x28, 0x33, 0x99, 0x3e, 0x3d, 0x6c, 0xed, 0x3d, 0xb4, 0xa5, 0x34, 0x3e, 
    0x16, 0x0d, 0x9e, 0xbd, 0x6b, 0xd2, 0xb1, 0xbd, 0x30, 0x0e, 0x1f, 0xbd, 
    0x4f, 0x03, 0x37, 0x3e, 0x41, 0xa5, 0xa7, 0x3c, 0xc0, 0x18, 0x7a, 0x3e, 
    0xb2, 0x1c, 0x1c, 0x3e, 0xfd, 0x07, 0x3a, 0xbe, 0xe2, 0xc4, 0x77, 0x3e, 
    0x85, 0x58, 0x6f, 0xbe, 0x49, 0x6f, 0x05, 0xbd, 0xd7, 0xd5, 0x48, 0x3e, 
    0xbf, 0x1e, 0xf1, 0xbd, 0xf8, 0xd3, 0x70, 0xbd, 0x08, 0x53, 0x1e, 0xbd, 
    0xc1, 0x38, 0x58, 0x3d, 0xba, 0x8a, 0x19, 0xbe, 0x77, 0x15, 0x8b, 0xbd, 
    0x9c, 0xb7, 0xc8, 0x3e, 0x03, 0x83, 0xd9, 0x3c, 0xb8, 0x2d, 0xc5, 0xbe, 
    0x21, 0x4c, 0xb2, 0x3d, 0xde, 0x68, 0x11, 0xbd, 0x0f, 0x0b, 0x1e, 0xbe, 
    0xaa, 0xfc, 0x8d, 0xbe, 0xea, 0x23, 0x25, 0xbe, 0x95, 0x1e, 0xc5, 0xbb, 
    0xe2, 0x74, 0x36, 0x3e, 0x1f, 0x52, 0x55, 0x3e, 0xc9, 0xef, 0x26, 0x3e, 
    0xee, 0x64, 0x18, 0x3e, 0x31, 0x77, 0x6e, 0x3d, 0x59, 0x8f, 0x57, 0x3e, 
    0xb2, 0xb3, 0x0e, 0xbe, 0xf9, 0x5b, 0x85, 0x3c, 0xd8, 0x7d, 0x4f, 0xbd, 
    0xcd, 0x0d, 0x73, 0xbe, 0xe7, 0xb5, 0x25, 0x3e, 0x34, 0x08, 0xaa, 0xbe, 
    0x07, 0xd0, 0x2f, 0xbe, 0x99, 0x0a, 0x8c, 0x3e, 0xcc, 0x0a, 0x9f, 0x3e, 
    0xb3, 0x78, 0x9d, 0x3d, 0x75, 0x59, 0xa1, 0x3e, 0x00, 0x8c, 0x82, 0x3e, 
    0xa7, 0x20, 0x3f, 0x3e, 0xac, 0x4c, 0x21, 0x3e, 0x95, 0xde, 0x3d, 0xbd, 
    0xbc, 0x17, 0x6b, 0x3e, 0xdc, 0x68, 0x31, 0xbd, 0xd3, 0xd5, 0x3e, 0x3e, 
    0x88, 0xfc, 0xeb, 0x3c, 0x05, 0xca, 0xd3, 0xbd, 0x8d, 0xed, 0x00, 0xbb, 
    0xf2, 0x93, 0x68, 0xbe, 0x62, 0xe0, 0x02, 0xbe, 0x1f, 0xa2, 0x24, 0x3d, 
    0xd4, 0xda, 0x59, 0xbe, 0x91, 0x15, 0x02, 0xbd, 0x8f, 0xeb, 0x02, 0xbe, 
    0x2b, 0xcc, 0x1c, 0x3e, 0xe6, 0xf1, 0xb8, 0x3c, 0xee, 0xde, 0x94, 0xbd, 
    0x2c, 0x12, 0x8a, 0x3e, 0xa5, 0xb2, 0x12, 0x3e, 0x9c, 0xfc, 0xbe, 0xbd, 
    0xb6, 0x7a, 0x90, 0xbe, 0xf8, 0xe6, 0x3e, 0xba, 0xc7, 0xc8, 0x76, 0xbd, 
    0x9c, 0x55, 0x60, 0xbe, 0x79, 0x8f, 0x42, 0x3e, 0x98, 0x16, 0x55, 0xbe, 
    0x89, 0x57, 0x1a, 0xbe, 0x4c, 0x1a, 0x4e, 0x3e, 0x55, 0xcf, 0xb7, 0xbe, 
    0x33, 0xfb, 0x65, 0x3e, 0xab, 0xdf, 0x80, 0x3c, 0xa3, 0xe7, 0xf8, 0x3d, 
    0x5b, 0x9f, 0x86, 0x3d, 0x2b, 0xd1, 0x3f, 0x3e, 0x66, 0x3c, 0xa9, 0xbe, 
    0x5b, 0xce, 0x57, 0x3e, 0x4f, 0x2a, 0x4b, 0x3e, 0x2c, 0xe7, 0x64, 0x3d, 
    0x1c, 0x1e, 0x21, 0x3e, 0x81, 0xae, 0x65, 0xbc, 0x93, 0x90, 0xc2, 0x3e, 
    0xec, 0xae, 0xe7, 0xbd, 0xb0, 0x56, 0xcd, 0xba, 0x7a, 0x31, 0x68, 0xbe, 
    0xd0, 0x2b, 0x94, 0x3e, 0x5a, 0x27, 0x5d, 0xbe, 0xfb, 0x78, 0x24, 0xbd, 
    0x1a, 0xbb, 0x9b, 0x3d, 0xf6, 0x09, 0x92, 0x3e, 0xf8, 0xe5, 0x2b, 0xbe, 
    0xc2, 0x1f, 0x9d, 0xbe, 0xc9, 0xc0, 0x84, 0x3e, 0x42, 0x5d, 0x8d, 0xbe, 
    0xba, 0x86, 0xce, 0x3d, 0x0a, 0x80, 0x70, 0x3c, 0x98, 0x42, 0x09, 0xbe, 
    0xcb, 0xd8, 0x85, 0x3e, 0x06, 0xe6, 0xb5, 0xbc, 0xb3, 0x5b, 0x97, 0xbe, 
    0xbf, 0xc7, 0xae, 0xbe, 0x71, 0x8f, 0x01, 0x3e, 0x24, 0x4b, 0x87, 0xbd, 
    0x73, 0xd9, 0x07, 0x3e, 0xc0, 0x3d, 0xf6, 0xbd, 0xdd, 0xd2, 0x29, 0xbe, 
    0x17, 0xaf, 0x65, 0xbd, 0x99, 0x15, 0x1d, 0xbe, 0x87, 0xdb, 0xd6, 0x3d, 
    0xf7, 0x2e, 0xa1, 0xbc, 0xd7, 0xf9, 0x24, 0x3e, 0xf0, 0x50, 0x13, 0x3e, 
    0x39, 0x4e, 0x48, 0x3e, 0xe2, 0x96, 0x7a, 0x3d, 0x0c, 0x14, 0xa4, 0xbe, 
    0x4b, 0x5b, 0x87, 0x3d, 0x1e, 0xae, 0xd0, 0xbc, 0x58, 0x0b, 0xb6, 0x3c, 
    0x4a, 0xee, 0x0a, 0x3e, 0x35, 0xc6, 0xef, 0x3c, 0x5b, 0xfd, 0x33, 0x3e, 
    0x08, 0x66, 0xbc, 0x3e, 0xc3, 0xc1, 0x2c, 0xbe, 0x47, 0xc2, 0x5a, 0xbd, 
    0x24, 0x70, 0x42, 0x3e, 0xba, 0x1b, 0xfb, 0xbc, 0xe0, 0x5e, 0xfb, 0xbd, 
    0xe2, 0xcf, 0x9e, 0xbe, 0x92, 0x09, 0x3d, 0xbe, 0xfa, 0x79, 0xb6, 0xbc, 
    0x3a, 0xa7, 0x1c, 0xbe, 0x86, 0x93, 0x0a, 0x3d, 0x2a, 0x02, 0xa0, 0x3e, 
    0x62, 0x1a, 0x12, 0x3d, 0xe1, 0x92, 0x19, 0x3e, 0x34, 0xd8, 0x86, 0x3d, 
    0x7e, 0x04, 0xd4, 0x3d, 0x95, 0x0e, 0x64, 0xbe, 0x86, 0x5e, 0x02, 0xbe, 
    0x9c, 0xc3, 0x53, 0xbd, 0x3f, 0x0a, 0x57, 0xbe, 0x11, 0x29, 0xe5, 0xbd, 
    0x9b, 0xe1, 0xe1, 0x3d, 0xf7, 0x19, 0xf1, 0xbd, 0x77, 0xb9, 0x2f, 0x3e, 
    0xf0, 0x75, 0xbb, 0xbe, 0xb2, 0xf6, 0xb2, 0x3d, 0x8f, 0x41, 0x80, 0xbe, 
    0xa1, 0x2e, 0x76, 0xbe, 0xa3, 0x02, 0x30, 0x3e, 0xd0, 0x84, 0x8c, 0xbd, 
    0x90, 0xfd, 0xf7, 0x3d, 0xcf, 0xc2, 0xc9, 0xbe, 0x9d, 0xe4, 0x6c, 0x3e, 
    0x7b, 0x43, 0x4c, 0x3e, 0x6c, 0x0c, 0x0b, 0xbe, 0x8f, 0x1c, 0xd4, 0xbc, 
    0xd1, 0x07, 0x8d, 0x3d, 0x4d, 0x0c, 0x72, 0x3e, 0xf8, 0x58, 0xa0, 0x3e, 
    0x4e, 0x21, 0xb7, 0xbe, 0xbd, 0xeb, 0xec, 0x3d, 0x4a, 0x93, 0x0b, 0x3e, 
    0xd9, 0xa2, 0x14, 0xbe, 0xab, 0xba, 0x54, 0xbc, 0xc2, 0x5b, 0x9a, 0x3e, 
    0xec, 0xd7, 0x18, 0xbe, 0x8c, 0xfa, 0x98, 0xbd, 0xbc, 0x6d, 0x3b, 0xbd, 
    0x47, 0x25, 0x4b, 0xbe, 0x93, 0x3d, 0xea, 0xbd, 0x87, 0x45, 0x40, 0xbd, 
    0xbf, 0x11, 0x5a, 0x3e, 0xfd, 0x5c, 0x37, 0xbe, 0x3e, 0x36, 0x59, 0xbe, 
    0x91, 0x16, 0xda, 0xbc, 0x70, 0xd4, 0x8a, 0x3e, 0xb8, 0x2d, 0x0f, 0x3e, 
    0xf4, 0x33, 0xbf, 0xbc, 0x94, 0x9f, 0x82, 0xbd, 0x13, 0x78, 0x43, 0xbe, 
    0x94, 0x0b, 0x2f, 0x3e, 0x96, 0xd7, 0x19, 0xbe, 0x27, 0x14, 0x8e, 0x3e, 
    0x04, 0xa6, 0x82, 0x3d, 0x4b, 0x69, 0x26, 0x3b, 0x5b, 0xcd, 0x92, 0x3d, 
    0x2d, 0x8c, 0x41, 0x3d, 0x19, 0x62, 0x89, 0xbe, 0x81, 0xc8, 0x2b, 0xbe, 
    0x8f, 0x38, 0x58, 0x3e, 0x6c, 0x8d, 0x80, 0xbe, 0x4b, 0x16, 0xb6, 0x3d, 
    0x85, 0xc4, 0x42, 0x3d, 0x5c, 0x92, 0xcd, 0xbe, 0x6d, 0x04, 0xa8, 0xbd, 
    0x9e, 0xe2, 0xb9, 0xbe, 0x2c, 0xf7, 0xa3, 0x3e, 0xfb, 0xa5, 0xb7, 0x3d, 
    0x38, 0x10, 0x22, 0x3e, 0x85, 0x47, 0x0c, 0xbe, 0x1e, 0x25, 0x89, 0x3d, 
    0xc4, 0x8a, 0x0a, 0xbe, 0x8d, 0x11, 0x4f, 0x3d, 0x98, 0x92, 0x9b, 0xbc, 
    0xf1, 0xfa, 0x90, 0x3c, 0xd0, 0x1b, 0x50, 0xbe, 0x42, 0xd7, 0xb0, 0xbd, 
    0x80, 0x1d, 0x29, 0x3c, 0x8d, 0x04, 0xc0, 0xbe, 0x6b, 0xc6, 0x3c, 0xbd, 
    0xa7, 0xf0, 0x09, 0xbe, 0xe3, 0xb2, 0xf6, 0xbc, 0x99, 0x37, 0x54, 0xbd, 
    0x8c, 0xb1, 0x67, 0xbe, 0xef, 0x17, 0x30, 0xbc, 0x97, 0x0e, 0xaa, 0xbe, 
    0x33, 0x49, 0x5e, 0x3d, 0x28, 0x22, 0xce, 0xbd, 0xbb, 0x9d, 0xc1, 0x3e, 
    0xb6, 0x19, 0x42, 0x3d, 0x86, 0x5c, 0x55, 0x3d, 0x0f, 0x6c, 0x9a, 0xbd, 
    0xc0, 0x94, 0x2d, 0x3e, 0xc7, 0xd0, 0x53, 0xbc, 0x8f, 0xfb, 0x60, 0xbe, 
    0x0a, 0x1b, 0x7c, 0x3d, 0x8e, 0x8c, 0x6c, 0x3e, 0x1b, 0xea, 0x89, 0x3d, 
    0x1b, 0xd8, 0xfc, 0xbd, 0x82, 0x33, 0xa8, 0xbe, 0x28, 0x85, 0x78, 0x3d, 
    0x50, 0x58, 0x59, 0x3d, 0x43, 0x3a, 0x72, 0x3e, 0xe0, 0x1e, 0x55, 0xbe, 
    0xec, 0xd8, 0x51, 0xbd, 0xe8, 0x37, 0x44, 0xbe, 0xa4, 0x57, 0x3a, 0x3e, 
    0x10, 0x66, 0x05, 0x3d, 0x2f, 0xbe, 0x8b, 0xbe, 0x47, 0xdb, 0x7a, 0x3e, 
    0x57, 0xf4, 0x19, 0xbc, 0x67, 0xf8, 0x65, 0x3e, 0xd8, 0xd8, 0xf6, 0xb8, 
    0xdb, 0x54, 0x17, 0x3e, 0xe1, 0x1a, 0x1c, 0x3e, 0xfc, 0x6f, 0xba, 0xbd, 
    0x61, 0xd9, 0x92, 0x3d, 0x3e, 0x04, 0x6f, 0xbe, 0x03, 0xda, 0x04, 0x3e, 
    0xad, 0xa5, 0x7e, 0xbd, 0x15, 0xaf, 0xcf, 0xbd, 0x0b, 0x51, 0x90, 0xbe, 
    0x1d, 0x92, 0x9f, 0xbd, 0x00, 0x61, 0x03, 0x3e, 0x6a, 0x30, 0x5f, 0xb9, 
    0x71, 0x5f, 0xe2, 0xbd, 0xaa, 0x8c, 0x24, 0xbe, 0x04, 0x06, 0x38, 0x3d, 
    0xda, 0x03, 0x74, 0xbe, 0x94, 0x73, 0x87, 0xbe, 0xd5, 0x28, 0x12, 0xbe, 
    0xc9, 0x87, 0x01, 0xbe, 0xeb, 0x7b, 0x04, 0xbe, 0x57, 0x6e, 0xf6, 0x3d, 
    0xc8, 0x4e, 0xf4, 0x3c, 0x58, 0xad, 0xa2, 0x3d, 0xa4, 0x9e, 0x9b, 0xbd, 
    0x13, 0x2a, 0x1b, 0xbe, 0xa7, 0x7f, 0xec, 0xbd, 0x60, 0xf2, 0x7f, 0x3a, 
    0x94, 0x51, 0x52, 0x3e, 0x05, 0x9a, 0x0b, 0x3c, 0xdd, 0xbe, 0x00, 0x3e, 
    0xc2, 0x10, 0xbe, 0xbd, 0x54, 0x37, 0x42, 0xbe, 0xed, 0x3b, 0xbe, 0xbe, 
    0xf4, 0x88, 0x93, 0x3d, 0x9c, 0xe1, 0x98, 0x3e, 0x6f, 0x52, 0x33, 0xbc, 
    0x48, 0xbc, 0xac, 0xbc, 0xb2, 0x19, 0x64, 0xbe, 0x18, 0x47, 0xca, 0x3d, 
    0xf5, 0x6d, 0x2d, 0x3e, 0x82, 0x0b, 0x2d, 0x3e, 0x4d, 0xe9, 0xf5, 0xbc, 
    0x2e, 0xca, 0xcb, 0x3d, 0x4a, 0x8e, 0xd1, 0x3d, 0xe8, 0xbe, 0x62, 0x3e, 
    0xb1, 0x3e, 0x93, 0x3e, 0x7e, 0xc2, 0x56, 0x3e, 0xec, 0x75, 0x06, 0xbe, 
    0xbe, 0x4f, 0x47, 0x3e, 0x79, 0x63, 0x00, 0xbd, 0x96, 0xd6, 0x73, 0xbe, 
    0xb4, 0x12, 0x6f, 0x3d, 0x25, 0xf4, 0x63, 0x3d, 0x4d, 0xf1, 0xb2, 0xbd, 
    0x5a, 0xac, 0x12, 0xbe, 0x1f, 0x8d, 0xcd, 0xbe, 0x62, 0xb6, 0x10, 0x3e, 
    0x81, 0x86, 0xfe, 0x3c, 0x3c, 0xdf, 0x41, 0x3d, 0xe7, 0x1a, 0x9b, 0xbe, 
    0xcc, 0xb7, 0x05, 0xbe, 0xcb, 0x9b, 0xb5, 0x3e, 0x08, 0xde, 0x1c, 0x3e, 
    0x2b, 0x8a, 0xd1, 0x3d, 0x8b, 0x86, 0x35, 0xbe, 0xe2, 0x94, 0x2f, 0xbe, 
    0x1d, 0x91, 0x01, 0xbd, 0x1e, 0x2b, 0xb7, 0xbd, 0x26, 0x97, 0x2a, 0xbe, 
    0x44, 0xeb, 0xcb, 0x3e, 0x7b, 0x0d, 0x19, 0x3e, 0x10, 0xab, 0x7b, 0x3e, 
    0x63, 0x9c, 0x8f, 0xbe, 0x15, 0x4d, 0x2e, 0xbe, 0xc6, 0xe9, 0xbb, 0xbd, 
    0x31, 0x99, 0x1b, 0x3e, 0xaa, 0x27, 0x84, 0xbd, 0x9e, 0x45, 0x0e, 0xbd, 
    0xcb, 0x42, 0x57, 0xbe, 0x16, 0x08, 0x90, 0xbd, 0xed, 0x0e, 0x2f, 0x3e, 
    0xbf, 0xaf, 0xfe, 0xbd, 0x53, 0xb2, 0xa0, 0xbe, 0x3b, 0x77, 0xd5, 0xbc, 
    0x9a, 0x28, 0x51, 0xbe, 0x4c, 0xb1, 0xba, 0xbd, 0x3c, 0x50, 0xb6, 0xbe, 
    0xf6, 0xd0, 0x9c, 0xbe, 0xa8, 0x42, 0x36, 0x3e, 0xdb, 0x2c, 0xb3, 0xbe, 
    0xf3, 0xd6, 0x86, 0xbc, 0x50, 0xba, 0x73, 0x3e, 0x5d, 0x73, 0x8b, 0xbd, 
    0x4c, 0xee, 0x93, 0xbe, 0xa5, 0xec, 0x85, 0x3d, 0xe8, 0x52, 0x2a, 0xbe, 
    0x16, 0xf4, 0x7c, 0xbe, 0xcf, 0x64, 0x15, 0x3d, 0x49, 0xf8, 0x1c, 0x3e, 
    0xa4, 0x41, 0x5f, 0xbe, 0x9b, 0x80, 0x1d, 0xbe, 0x2c, 0x9c, 0x9b, 0x3c, 
    0x3e, 0xfb, 0x26, 0xbe, 0x87, 0x7b, 0x88, 0x3e, 0x37, 0xe1, 0x07, 0x3c, 
    0x8f, 0xdd, 0x87, 0x3e, 0x13, 0x13, 0xb1, 0x3e, 0x40, 0x8f, 0x32, 0x3e, 
    0x8f, 0xd8, 0xdd, 0xbd, 0x1e, 0x7d, 0xe7, 0x3c, 0xaf, 0xab, 0x62, 0xbe, 
    0x6f, 0x09, 0x34, 0xbe, 0xf9, 0xc0, 0x2f, 0xbe, 0x44, 0xab, 0x33, 0xbd, 
    0x90, 0xe0, 0xc2, 0xbe, 0x48, 0x82, 0xb0, 0xbc, 0x53, 0x9d, 0xaa, 0x3a, 
    0x16, 0x9d, 0x81, 0x3d, 0x3e, 0xe0, 0xcd, 0xbd, 0x11, 0xa4, 0x8b, 0x3e, 
    0xf6, 0xa1, 0x1f, 0x3e, 0xab, 0xdf, 0x4c, 0xbd, 0x95, 0x3f, 0xa6, 0x3e, 
    0x9b, 0x80, 0xae, 0xbe, 0xec, 0x0f, 0x92, 0xbd, 0x03, 0x4a, 0x0b, 0x3e, 
    0xf2, 0x7b, 0x4b, 0x3e, 0x9d, 0x3c, 0x7b, 0x3e, 0x75, 0x83, 0x45, 0xbe, 
    0x93, 0x79, 0xa3, 0xbe, 0xc8, 0x86, 0x87, 0x3d, 0x64, 0x64, 0x9a, 0xbc, 
    0x61, 0x5a, 0xa4, 0xbc, 0xd7, 0x86, 0x44, 0x3e, 0x29, 0x9e, 0x25, 0xbe, 
    0xa9, 0x22, 0xc4, 0xbd, 0xa6, 0x2c, 0x80, 0xbe, 0xbb, 0x0e, 0x41, 0xbd, 
    0xde, 0xa9, 0xbf, 0x3d, 0x03, 0xf2, 0xb0, 0x3e, 0xdd, 0x34, 0xa0, 0x3e, 
    0x93, 0xd6, 0x97, 0x3e, 0xb0, 0x37, 0x97, 0xbe, 0xc9, 0x11, 0x25, 0xbe, 
    0xe7, 0x0a, 0xbe, 0xbd, 0x7f, 0xc3, 0xe4, 0xbd, 0x01, 0xd0, 0xb3, 0xb9, 
    0x15, 0x0a, 0x25, 0x3e, 0xec, 0x95, 0x8d, 0x3e, 0x27, 0x3f, 0x76, 0xbe, 
    0x09, 0x42, 0x56, 0xbd, 0xef, 0xfd, 0xdc, 0x3d, 0xb4, 0x1d, 0x5d, 0xbe, 
    0x87, 0xbc, 0x6c, 0x3d, 0xed, 0xbe, 0xb7, 0xbe, 0xe5, 0x4c, 0xa9, 0xbd, 
    0x8e, 0x0e, 0x34, 0x3d, 0x81, 0x40, 0x2f, 0x3c, 0xc0, 0x9d, 0x52, 0x3e, 
    0xda, 0xe2, 0x57, 0x3e, 0x4f, 0x8f, 0x64, 0x3e, 0xeb, 0x02, 0xd3, 0x3a, 
    0xb6, 0x12, 0x59, 0x3e, 0x5d, 0x04, 0x07, 0xbe, 0x72, 0x14, 0x5c, 0xbe, 
    0xca, 0x9a, 0x81, 0xbe, 0x1e, 0xf4, 0x9b, 0xbe, 0xc8, 0x39, 0x52, 0x3d, 
    0x77, 0x82, 0xb7, 0x3b, 0x68, 0xb1, 0x44, 0xbc, 0x8f, 0xc1, 0xa7, 0x3e, 
    0x91, 0x06, 0xe8, 0xbd, 0xd9, 0x0d, 0x5d, 0x3c, 0x05, 0x8c, 0x1a, 0xbe, 
    0x3e, 0x21, 0xa2, 0x3d, 0x49, 0xaa, 0x01, 0xbd, 0xde, 0x53, 0x78, 0xbe, 
    0x77, 0xc0, 0xfd, 0xbd, 0x32, 0x9c, 0xbd, 0xbe, 0x3d, 0x09, 0xb4, 0x3e, 
    0xd8, 0x81, 0x42, 0x3e, 0x3e, 0x0c, 0x84, 0xbe, 0x8b, 0x04, 0x54, 0xbe, 
    0x5c, 0x32, 0xf7, 0xbd, 0xb6, 0xcb, 0x4e, 0xbe, 0x34, 0x50, 0xd5, 0xbd, 
    0x00, 0xfd, 0xb3, 0xbd, 0x36, 0xe7, 0xf7, 0x3d, 0x86, 0x85, 0x82, 0xbe, 
    0x01, 0x1f, 0xcb, 0x3c, 0xbb, 0x96, 0x4c, 0x3d, 0xc3, 0x88, 0x20, 0x3e, 
    0x3a, 0x89, 0x68, 0xbb, 0x35, 0xdb, 0xe2, 0xbd, 0x0c, 0x71, 0x3b, 0x3e, 
    0x64, 0x48, 0x7e, 0xbe, 0x76, 0x99, 0x0c, 0x3e, 0x52, 0x71, 0xcd, 0xbd, 
    0x8f, 0xd3, 0xb3, 0x3c, 0xb4, 0xb7, 0x8f, 0x3e, 0xe5, 0xdc, 0xba, 0x3e, 
    0x7a, 0x7a, 0x7c, 0x3e, 0x51, 0x72, 0xa5, 0xbe, 0xee, 0x91, 0x07, 0x3e, 
    0x16, 0xdd, 0x21, 0x3e, 0xbe, 0x2a, 0x79, 0xbd, 0x0a, 0x1b, 0x3d, 0xbe, 
    0xe5, 0xa6, 0x1b, 0x3e, 0x16, 0x92, 0xbb, 0x3d, 0xb4, 0x79, 0x46, 0xbe, 
    0xc3, 0x04, 0xc4, 0xbd, 0x87, 0x1a, 0x66, 0x3c, 0x96, 0x31, 0x9a, 0x3d, 
    0xbb, 0x9e, 0xa8, 0x3e, 0xdc, 0x1e, 0x09, 0x3e, 0xdc, 0x1e, 0x71, 0x3e, 
    0x7a, 0xde, 0x6f, 0x3e, 0x5a, 0xf1, 0x3c, 0xbe, 0x53, 0xea, 0x49, 0xbe, 
    0x3b, 0xc4, 0x23, 0x3e, 0xd7, 0x82, 0xb4, 0x3d, 0x00, 0x91, 0xc6, 0xbd, 
    0xdf, 0x12, 0x61, 0x3e, 0xf8, 0xda, 0x8d, 0xbd, 0x6d, 0x58, 0x31, 0x3e, 
    0x29, 0x09, 0x85, 0x3d, 0x14, 0x04, 0x85, 0x3e, 0x31, 0x61, 0x2f, 0xbb, 
    0xb8, 0x7b, 0xc0, 0x3d, 0x10, 0x80, 0x22, 0xbd, 0x8e, 0x3b, 0x70, 0x3e, 
    0x9c, 0x7d, 0xae, 0x3e, 0x8d, 0x59, 0xb9, 0x3e, 0x86, 0xbc, 0x97, 0xbd, 
    0x71, 0x2a, 0x67, 0xbe, 0xb7, 0x46, 0x3f, 0x3e, 0xd4, 0x6b, 0x8c, 0x3e, 
    0x6e, 0xa0, 0x6a, 0xbe, 0x05, 0xf2, 0xe9, 0xbd, 0xb2, 0x01, 0xa7, 0x3e, 
    0x21, 0x56, 0x83, 0x3c, 0xac, 0x0c, 0x7e, 0x3e, 0x1f, 0xa5, 0xde, 0xbd, 
    0xae, 0x24, 0x30, 0xbc, 0xb2, 0x89, 0x7e, 0xbe, 0x50, 0xea, 0xac, 0x3e, 
    0xe0, 0x89, 0x27, 0x3e, 0xc2, 0xf7, 0x30, 0x3e, 0xea, 0x3e, 0x60, 0x3d, 
    0x63, 0x87, 0xe4, 0xbd, 0x7a, 0x5b, 0xb5, 0xbe, 0xa1, 0xc5, 0x78, 0xbe, 
    0xac, 0xed, 0x99, 0xbe, 0x8f, 0x04, 0xf2, 0xbc, 0x9b, 0x64, 0x70, 0xbe, 
    0xdc, 0xed, 0xc2, 0x3b, 0x28, 0x50, 0x3a, 0x3e, 0xf9, 0xb2, 0xc0, 0xbd, 
    0xe6, 0x68, 0x31, 0xbe, 0x30, 0x1d, 0xe1, 0xbd, 0xbc, 0xc3, 0x21, 0xbe, 
    0x65, 0x6d, 0x6c, 0xbe, 0x15, 0x94, 0x24, 0xbe, 0x55, 0xd4, 0x8f, 0x3e, 
    0x9e, 0xd3, 0x11, 0x3e, 0x4e, 0xeb, 0x37, 0x3e, 0x7b, 0x96, 0xd2, 0xbd, 
    0xb1, 0x76, 0x8c, 0xbd, 0x28, 0x87, 0xda, 0x3d, 0xc4, 0xd1, 0x46, 0xbd, 
    0x00, 0x8a, 0xc0, 0xbe, 0xee, 0x20, 0xad, 0x3c, 0xbc, 0x1b, 0x2b, 0xbe, 
    0xbe, 0xf4, 0x98, 0x3e, 0xad, 0x8a, 0x81, 0xbe, 0x7c, 0xb5, 0x13, 0xbe, 
    0x25, 0x60, 0x19, 0xbd, 0xcd, 0xc8, 0x25, 0x3d, 0x10, 0x14, 0x98, 0x3d, 
    0x00, 0x10, 0x57, 0xbe, 0x76, 0x03, 0xa1, 0xbe, 0x1d, 0x4f, 0x80, 0xbe, 
    0x68, 0x01, 0x00, 0x3c, 0xed, 0xa0, 0x64, 0x3d, 0x29, 0x8c, 0x92, 0xbc, 
    0x96, 0x61, 0x91, 0x3e, 0x6b, 0x7e, 0x29, 0x3e, 0xcc, 0x7e, 0xdc, 0x3b, 
    0x38, 0x5b, 0x26, 0x3e, 0x8a, 0xc3, 0x17, 0x3e, 0xd6, 0x1b, 0x3b, 0x3e, 
    0x20, 0xb2, 0xee, 0xbd, 0x51, 0xa2, 0xa8, 0x3e, 0x1a, 0x4a, 0xad, 0x3d, 
    0x23, 0x9b, 0x02, 0x3e, 0x8a, 0x21, 0x2b, 0x3d, 0xb0, 0xc5, 0x8d, 0xbe, 
    0x8a, 0x0b, 0x25, 0xbd, 0x5c, 0x08, 0xd8, 0xbb, 0xed, 0x4f, 0x85, 0x3d, 
    0x52, 0xff, 0x1e, 0xbe, 0x87, 0xae, 0x2d, 0x3d, 0x00, 0x37, 0x5b, 0x3e, 
    0x0f, 0xf1, 0x42, 0x3e, 0xa0, 0x42, 0x3b, 0xbd, 0x0b, 0xbf, 0x56, 0x3e, 
    0x0c, 0x3a, 0x36, 0x3e, 0x1f, 0xa1, 0x7a, 0x3d, 0x85, 0x49, 0xf9, 0xbd, 
    0x44, 0xa2, 0x0c, 0x3e, 0xcd, 0xda, 0x85, 0xbe, 0xee, 0x45, 0x18, 0x3e, 
    0x34, 0xa2, 0x77, 0xbd, 0xf2, 0x8d, 0x5c, 0x3e, 0xfd, 0x9b, 0xf8, 0x3d, 
    0xd3, 0x21, 0xf0, 0xbd, 0x88, 0x50, 0xc3, 0x3e, 0x37, 0x45, 0x52, 0xbe, 
    0x18, 0xbd, 0xeb, 0x3b, 0x9f, 0x78, 0x7e, 0xbd, 0x7d, 0xc7, 0xae, 0xbe, 
    0x0f, 0xd2, 0x2c, 0x3e, 0x75, 0x9a, 0x9a, 0xbe, 0x42, 0x1b, 0x1a, 0x3c, 
    0xc4, 0xbd, 0xb2, 0x3d, 0x42, 0xef, 0xd7, 0xbd, 0x8e, 0x0c, 0x9f, 0xbd, 
    0x54, 0xbb, 0x75, 0xbd, 0x70, 0x37, 0x66, 0x3e, 0x6a, 0xf3, 0xf6, 0xbc, 
    0xc7, 0x85, 0x3e, 0xbe, 0x3a, 0x53, 0x72, 0xbe, 0x8b, 0x83, 0x2d, 0x3e, 
    0x22, 0x7f, 0xda, 0x3c, 0x73, 0x1c, 0x1f, 0x3e, 0x5f, 0x79, 0x61, 0x3e, 
    0xb0, 0x59, 0x0d, 0x3e, 0x3f, 0x0c, 0x94, 0x3d, 0x68, 0x6f, 0xc4, 0x3d, 
    0x7d, 0xca, 0x33, 0xbe, 0x4a, 0x91, 0xa2, 0x3d, 0xd5, 0xad, 0xa4, 0xbb, 
    0xcb, 0x86, 0xa6, 0xbc, 0x3b, 0x13, 0x1e, 0xbe, 0xcf, 0xfe, 0x1f, 0xbd, 
    0x52, 0x64, 0x94, 0x3d, 0xbd, 0x95, 0xb2, 0xbe, 0x60, 0x24, 0x6a, 0xbd, 
    0x5d, 0x56, 0x11, 0x3d, 0xc7, 0x8e, 0x3f, 0xbe, 0x4b, 0x0a, 0x41, 0xbd, 
    0xaf, 0xc9, 0xe4, 0x3c, 0x91, 0x6f, 0xab, 0xbd, 0xe2, 0xaa, 0x43, 0xbe, 
    0x05, 0x52, 0xa6, 0x3e, 0xcf, 0x78, 0x15, 0xbe, 0x42, 0xc5, 0xaa, 0x3e, 
    0x71, 0x66, 0x18, 0xbe, 0x09, 0x93, 0x74, 0x3e, 0x2b, 0xcf, 0x8e, 0xbe, 
    0x96, 0xe3, 0x55, 0x3e, 0x3c, 0x18, 0xd5, 0xbc, 0x85, 0xc6, 0xfd, 0xbd, 
    0xb0, 0xb6, 0x64, 0xbe, 0x7a, 0x69, 0x2a, 0x3d, 0x7b, 0x2c, 0xb1, 0xbd, 
    0xff, 0x84, 0x39, 0xbd, 0xa9, 0xe8, 0xb9, 0xbd, 0x7c, 0xaf, 0x51, 0x3e, 
    0x98, 0x5a, 0x18, 0xbe, 0x4a, 0xe4, 0x67, 0xbd, 0xc2, 0x14, 0xaf, 0x3d, 
    0x58, 0x01, 0xec, 0xbd, 0xbe, 0x22, 0x9d, 0x3e, 0xf1, 0xeb, 0xa2, 0xbe, 
    0x6a, 0x39, 0x9f, 0x3d, 0xa5, 0x22, 0xab, 0xbd, 0xa3, 0x4e, 0x1b, 0x3e, 
    0x33, 0x93, 0xc8, 0x3e, 0x48, 0x07, 0xdc, 0xbd, 0xc1, 0xac, 0x64, 0x3d, 
    0x08, 0xba, 0x46, 0x3c, 0xfc, 0xb2, 0xdd, 0x3d, 0xf6, 0x18, 0x9f, 0xbd, 
    0x1d, 0x23, 0xfe, 0x3d, 0x9e, 0x7a, 0x0b, 0xbe, 0x83, 0x07, 0xe2, 0x3b, 
    0xce, 0xc6, 0x6f, 0x3e, 0x31, 0x59, 0x1f, 0xbe, 0x75, 0x2f, 0x8c, 0xbd, 
    0x77, 0xb9, 0xaa, 0x3e, 0xee, 0xcc, 0x34, 0xbb, 0xd4, 0x83, 0x3a, 0xbe, 
    0xc5, 0xc6, 0x9a, 0xbe, 0xd4, 0x1c, 0x43, 0x3e, 0x18, 0x4e, 0xc6, 0xbe, 
    0x46, 0x4d, 0x59, 0xbe, 0x06, 0x2f, 0x8d, 0x3e, 0x11, 0x8c, 0x01, 0xbd, 
    0x05, 0xdd, 0x07, 0x3e, 0x46, 0x9d, 0x4c, 0xbe, 0xb2, 0x01, 0x28, 0x3d, 
    0xf7, 0x89, 0x0e, 0xbe, 0x6c, 0xc1, 0x1a, 0x3e, 0x72, 0xa9, 0xa7, 0xbc, 
    0x8e, 0xc3, 0x23, 0x3e, 0x9e, 0x39, 0x8c, 0x3e, 0xb9, 0x1b, 0xb8, 0x3b, 
    0xe3, 0xfc, 0x5f, 0xbe, 0x18, 0xcc, 0x84, 0xba, 0xec, 0x21, 0x95, 0x3e, 
    0x2a, 0x71, 0x79, 0xbd, 0x26, 0x56, 0x84, 0x3d, 0xcf, 0xc5, 0xad, 0x3d, 
    0xa4, 0x46, 0x87, 0x3c, 0xd6, 0xe8, 0x5d, 0xbd, 0x27, 0x38, 0x5c, 0x3d, 
    0x85, 0x4c, 0x8e, 0xbd, 0x95, 0xa4, 0x09, 0xbe, 0xbe, 0xbd, 0x9f, 0xbe, 
    0x60, 0x42, 0x37, 0x3e, 0x71, 0x7b, 0x9f, 0x3d, 0x57, 0x7f, 0x79, 0x3d, 
    0xcb, 0x6f, 0x4f, 0x3e, 0x9a, 0x2c, 0x33, 0x3b, 0x70, 0xcf, 0xaf, 0xbc, 
    0x33, 0xa1, 0x34, 0xbd, 0x09, 0x1f, 0x9d, 0xbe, 0xc6, 0x1b, 0x49, 0xbe, 
    0x69, 0xfa, 0x14, 0x3d, 0x58, 0xcb, 0x40, 0xbc, 0x84, 0xa3, 0xe0, 0xbd, 
    0xe8, 0x72, 0x37, 0xbe, 0x5b, 0x1a, 0xac, 0x3d, 0x77, 0xb7, 0x8d, 0x3e, 
    0x36, 0x5a, 0x0b, 0x3e, 0x8e, 0x7c, 0x14, 0xbe, 0x72, 0xdc, 0x00, 0x3e, 
    0xe7, 0xfa, 0x31, 0xbd, 0x79, 0xee, 0x24, 0xbd, 0x45, 0xa9, 0x05, 0xbe, 
    0xba, 0x77, 0x44, 0xbe, 0x10, 0xcf, 0x6e, 0xbe, 0x05, 0xac, 0xbd, 0x3e, 
    0xd1, 0xc6, 0xf2, 0x3d, 0x37, 0xce, 0xfb, 0xbc, 0xab, 0x64, 0x4b, 0x3b, 
    0x76, 0xf7, 0x94, 0xbe, 0x97, 0xee, 0x38, 0xbe, 0x3b, 0x66, 0x84, 0xbe, 
    0xea, 0x5c, 0x26, 0x3e, 0x4e, 0x8e, 0x9a, 0xbd, 0x72, 0x0f, 0x2a, 0xbe, 
    0xe1, 0x74, 0xde, 0xbd, 0x82, 0x12, 0xba, 0x3d, 0xe8, 0xae, 0x81, 0xbe, 
    0xc1, 0x3f, 0xf1, 0x3d, 0x31, 0x15, 0x5a, 0x3e, 0x99, 0xd6, 0xc6, 0xbc, 
    0xb3, 0x88, 0x9d, 0x3e, 0x58, 0x66, 0x88, 0x3e, 0x3a, 0xe7, 0x1b, 0x3d, 
    0x82, 0x7b, 0xc4, 0x3b, 0xf8, 0x8b, 0xd5, 0xbd, 0xac, 0xd3, 0xb5, 0x3d, 
    0xf5, 0x95, 0x1c, 0x3d, 0x4d, 0xed, 0x19, 0xbe, 0xcf, 0xd0, 0x40, 0x3e, 
    0x71, 0x86, 0xbb, 0xbe, 0x02, 0x50, 0x3d, 0xbe, 0xe7, 0x48, 0x12, 0xbd, 
    0xf0, 0x07, 0xb2, 0xbc, 0x0c, 0x88, 0x96, 0xbe, 0x34, 0x78, 0x28, 0x3e, 
    0x5a, 0x85, 0x4a, 0x3e, 0x36, 0x17, 0x12, 0xbe, 0x61, 0xca, 0x21, 0xbe, 
    0xeb, 0xb8, 0x7a, 0x3d, 0x64, 0x23, 0xf7, 0xbd, 0x8b, 0xab, 0x21, 0x3e, 
    0x87, 0xe4, 0xc2, 0x3e, 0x24, 0x74, 0x1e, 0x3e, 0x93, 0xd4, 0x1c, 0x3e, 
    0xb2, 0x2e, 0xde, 0x3c, 0x8d, 0x9f, 0x49, 0x3e, 0xfb, 0xa0, 0x87, 0x3d, 
    0x0e, 0x73, 0x29, 0xbe, 0xf1, 0xf5, 0x0c, 0xbe, 0xc6, 0x1f, 0x92, 0x3d, 
    0x8e, 0x1d, 0x34, 0xbe, 0x1f, 0x0e, 0x6c, 0x3e, 0xdc, 0xde, 0xef, 0x3d, 
    0xfc, 0xbd, 0x9b, 0xbe, 0xbe, 0x92, 0x57, 0x3e, 0xaa, 0xe6, 0x5f, 0x3d, 
    0x64, 0x9a, 0x80, 0x3e, 0x00, 0x19, 0x63, 0x3e, 0x8c, 0xe5, 0x83, 0x3d, 
    0x97, 0x34, 0x7b, 0x3e, 0x5e, 0x01, 0xa6, 0x3e, 0xa4, 0x51, 0x88, 0xbe, 
    0x45, 0x4e, 0x29, 0xbd, 0x30, 0x93, 0x89, 0xbd, 0x43, 0x71, 0xa9, 0x3e, 
    0x5d, 0x91, 0x88, 0xbd, 0x01, 0x8e, 0xc5, 0xbd, 0x73, 0xcd, 0x96, 0x3d, 
    0xe7, 0xbd, 0xdf, 0xbd, 0x45, 0xf0, 0x22, 0xbe, 0x28, 0x93, 0xb7, 0x3d, 
    0x42, 0x42, 0xcd, 0x3b, 0xeb, 0x40, 0x5b, 0xbd, 0x44, 0xe0, 0x9a, 0x3d, 
    0x9f, 0x75, 0x08, 0xbe, 0x3b, 0xad, 0x09, 0x3d, 0x30, 0xfc, 0xbe, 0x3d, 
    0x79, 0xbe, 0x84, 0x3e, 0x7b, 0xd9, 0x24, 0x3c, 0xf5, 0xe9, 0xb9, 0x3d, 
    0x70, 0x41, 0x8c, 0x3e, 0xd7, 0xfa, 0x2a, 0x3c, 0x49, 0x0c, 0x96, 0xbe, 
    0x55, 0x2b, 0x19, 0xbd, 0x54, 0x4d, 0xe8, 0xbd, 0x42, 0x36, 0x9f, 0xbe, 
    0x92, 0xe5, 0x16, 0x3c, 0x78, 0x34, 0x79, 0xbc, 0x28, 0x3f, 0x3d, 0xbd, 
    0x2a, 0xde, 0xdf, 0x3c, 0x7d, 0x70, 0xa2, 0xbc, 0x6f, 0xc9, 0x78, 0xbe, 
    0x65, 0x07, 0xab, 0x3d, 0x0d, 0x01, 0xba, 0xbe, 0x41, 0xef, 0x67, 0x3c, 
    0x52, 0xbc, 0xb8, 0x3e, 0x31, 0x5b, 0x3c, 0xbe, 0xd9, 0x6b, 0x99, 0x3d, 
    0xe4, 0xb7, 0x68, 0xbc, 0xe8, 0xd9, 0x29, 0x3e, 0x42, 0x0b, 0xbd, 0x3d, 
    0x88, 0x4c, 0x6d, 0x3e, 0x68, 0x16, 0x44, 0x3d, 0x37, 0x64, 0x38, 0x3e, 
    0xb4, 0x69, 0xb2, 0x3d, 0xd1, 0xe9, 0xea, 0x3d, 0x3f, 0xb2, 0x85, 0x3d, 
    0x10, 0x91, 0xa7, 0xbc, 0x25, 0x4c, 0x6f, 0xbe, 0x84, 0x99, 0xae, 0xbc, 
    0xbf, 0x40, 0x33, 0x3e, 0x65, 0xea, 0x9c, 0x3c, 0x05, 0xa8, 0x84, 0x3d, 
    0xbd, 0x8b, 0x63, 0x3d, 0x56, 0x0f, 0xb2, 0xbc, 0xe1, 0xaf, 0x89, 0x3e, 
    0xb7, 0xe6, 0xa3, 0x3e, 0xa5, 0xfa, 0xa0, 0xbd, 0x1a, 0x40, 0xbd, 0x3d, 
    0x22, 0xf6, 0xdd, 0x3d, 0xa8, 0xf8, 0x8c, 0x3d, 0x3b, 0x37, 0xcb, 0xbe, 
    0x66, 0x63, 0xc7, 0x3e, 0xbe, 0xeb, 0x15, 0x3e, 0xbc, 0x02, 0x80, 0xbe, 
    0xdb, 0x06, 0x9a, 0xbd, 0x0d, 0x31, 0x04, 0xbe, 0x7a, 0x4b, 0x99, 0xbd, 
    0x6b, 0x6b, 0xcd, 0x3d, 0x4e, 0x93, 0x0f, 0xbe, 0xed, 0x47, 0xaa, 0x3e, 
    0x26, 0xd5, 0xfe, 0xbd, 0x0c, 0xc2, 0xcf, 0x3b, 0x7e, 0x8b, 0x4d, 0x3e, 
    0xb5, 0x7f, 0xe9, 0xbc, 0x59, 0x2a, 0x01, 0xbe, 0x62, 0xc5, 0x87, 0xbe, 
    0x85, 0x11, 0x31, 0xbe, 0x2d, 0x48, 0x49, 0xbe, 0xba, 0x8c, 0x11, 0xbd, 
    0xb7, 0x95, 0xd5, 0x3d, 0xb6, 0x25, 0x50, 0x3e, 0x4a, 0x50, 0x6a, 0xbe, 
    0x32, 0xf0, 0x84, 0x3e, 0xf7, 0x21, 0x48, 0x3e, 0x11, 0xb6, 0x00, 0x3e, 
    0x69, 0x1e, 0xe1, 0xbd, 0x33, 0xe7, 0xd8, 0x3d, 0xe1, 0xf1, 0x11, 0x3d, 
    0xb4, 0x38, 0x61, 0x3c, 0x62, 0xc3, 0x0e, 0x3e, 0x67, 0x78, 0x5c, 0xbd, 
    0x2b, 0xec, 0x20, 0xbe, 0x8d, 0xb0, 0xea, 0x3b, 0xf0, 0x5f, 0x77, 0x3e, 
    0x18, 0x60, 0x01, 0xbe, 0x8b, 0x3e, 0xbe, 0x3d, 0xdb, 0xd6, 0x39, 0x3e, 
    0x24, 0xff, 0x74, 0xbd, 0xc3, 0x98, 0xfa, 0x3d, 0x2a, 0x7e, 0xe5, 0x3d, 
    0x9f, 0x5f, 0x0a, 0x3e, 0x7a, 0xfb, 0x90, 0x3c, 0x22, 0x57, 0x75, 0x3e, 
    0xb6, 0xb9, 0x84, 0xbd, 0xe1, 0xff, 0x96, 0xbd, 0x2e, 0x72, 0x59, 0x3c, 
    0x9e, 0x44, 0x7d, 0x3e, 0xaa, 0xa4, 0x54, 0xbe, 0x76, 0xe7, 0x61, 0xbe, 
    0x23, 0x73, 0x63, 0xbe, 0xf5, 0xc1, 0xfa, 0x3c, 0x48, 0xee, 0x44, 0x3e, 
    0xcf, 0xa2, 0xbf, 0xbc, 0x54, 0x09, 0x27, 0x3e, 0x08, 0x52, 0x44, 0x3e, 
    0xac, 0xcd, 0xeb, 0x3d, 0xa3, 0xc5, 0x30, 0xbe, 0xe7, 0x01, 0xeb, 0x3c, 
    0xf5, 0x2f, 0x0a, 0x3d, 0x81, 0xf3, 0x0e, 0xbd, 0x48, 0x5d, 0x4f, 0x3e, 
    0xc7, 0x3b, 0x9a, 0x3e, 0x3d, 0xe8, 0xf5, 0x3c, 0x21, 0xd7, 0x85, 0xbc, 
    0x9b, 0xfe, 0x87, 0x3d, 0xc8, 0x87, 0x01, 0x3e, 0xb5, 0xb6, 0x7d, 0x3e, 
    0x63, 0x77, 0x22, 0x3e, 0x0b, 0xaa, 0x84, 0xbd, 0x41, 0x3c, 0x6d, 0x3e, 
    0x48, 0xb4, 0xc9, 0xbe, 0x58, 0xbf, 0x13, 0xbc, 0x5e, 0x4f, 0x0a, 0xbe, 
    0xbd, 0x32, 0x8c, 0x3e, 0x5e, 0x97, 0x8f, 0xbe, 0x9a, 0x09, 0x56, 0x3e, 
    0x63, 0xd9, 0x3b, 0x3e, 0x06, 0x47, 0x66, 0xbe, 0x46, 0xfe, 0x39, 0x3e, 
    0xeb, 0x48, 0x1c, 0x3d, 0xa5, 0xe3, 0x32, 0xbe, 0x21, 0x23, 0xd9, 0x3d, 
    0x7b, 0xe1, 0xe8, 0xbd, 0x43, 0x80, 0x20, 0xbe, 0x43, 0xd0, 0x04, 0x3d, 
    0x53, 0xaf, 0x9d, 0xbe, 0xc4, 0x7f, 0x89, 0xbe, 0xf5, 0x85, 0x10, 0x3e, 
    0x35, 0xf7, 0x91, 0xbe, 0x86, 0xfa, 0xa1, 0x3e, 0xec, 0x7f, 0x6d, 0xbe, 
    0x75, 0xd9, 0x94, 0x3e, 0xce, 0xef, 0x8e, 0xbd, 0x3a, 0xf1, 0xa3, 0xbc, 
    0xcf, 0xec, 0x24, 0x3e, 0xc2, 0x08, 0x32, 0x3e, 0x7e, 0x26, 0xe6, 0x3d, 
    0xbc, 0xbf, 0x07, 0xbe, 0x77, 0x60, 0x4b, 0x3c, 0x73, 0x13, 0xd4, 0xba, 
    0x02, 0xc8, 0x0b, 0xbe, 0x4f, 0xe6, 0xa0, 0xbd, 0x76, 0x2d, 0x5a, 0xbd, 
    0x2a, 0x70, 0x4f, 0x3e, 0xcf, 0x7c, 0xd4, 0xbd, 0xf9, 0xde, 0xe8, 0x3d, 
    0x77, 0xa2, 0x59, 0x3e, 0x24, 0x38, 0x20, 0xbc, 0xe3, 0xc1, 0xe8, 0xbb, 
    0x19, 0x8f, 0x2f, 0xbe, 0xb8, 0x35, 0xa1, 0xbd, 0xfd, 0x37, 0x32, 0x3e, 
    0x7d, 0x61, 0x89, 0xbe, 0x35, 0xf9, 0x94, 0xbe, 0x8b, 0x36, 0x41, 0x3e, 
    0x46, 0xaa, 0x30, 0x3c, 0x5b, 0x11, 0x92, 0xbd, 0x88, 0x5a, 0xa5, 0x3d, 
    0x8f, 0x7c, 0xd8, 0xbb, 0x56, 0xfd, 0x57, 0x3e, 0x54, 0x57, 0xb2, 0x3d, 
    0x1e, 0xfc, 0x82, 0x3e, 0x65, 0x64, 0xba, 0xbc, 0x8a, 0x5b, 0x93, 0x3e, 
    0x65, 0xb6, 0x5e, 0xbe, 0x05, 0x4b, 0x58, 0xbe, 0x62, 0xa5, 0x5c, 0xbe, 
    0x25, 0xa9, 0x8c, 0xbc, 0xf6, 0xf7, 0xac, 0x3e, 0xfc, 0xd0, 0xab, 0xbd, 
    0x75, 0x31, 0x34, 0x3e, 0xd6, 0xd4, 0x52, 0x3e, 0x8a, 0xef, 0xb8, 0xbe, 
    0x90, 0x04, 0xa3, 0xbe, 0x73, 0x38, 0xa6, 0xbb, 0x42, 0xc7, 0x8c, 0x3e, 
    0x98, 0x77, 0x19, 0xbe, 0xcc, 0x73, 0x6f, 0xbe, 0xf8, 0x53, 0x60, 0x3d, 
    0x67, 0x30, 0x6f, 0xbd, 0x00, 0x8a, 0x7e, 0x3e, 0xbd, 0x9a, 0x9a, 0xbd, 
    0x21, 0xf4, 0x07, 0x3d, 0x54, 0xb5, 0x94, 0xbe, 0x73, 0xa8, 0x3f, 0x3e, 
    0xc2, 0x56, 0x89, 0xbe, 0x16, 0xde, 0xbc, 0xbd, 0xf7, 0xe7, 0xe3, 0xbc, 
    0x55, 0xc3, 0xdd, 0xbd, 0xe4, 0xba, 0x01, 0x3e, 0x16, 0x87, 0xa5, 0x3e, 
    0x44, 0xdb, 0x86, 0x3d, 0xfa, 0xea, 0x3e, 0x3d, 0x62, 0x99, 0x94, 0x3e, 
    0x73, 0x6d, 0x0d, 0xbe, 0x56, 0x0f, 0xbb, 0xbd, 0xbe, 0x39, 0x24, 0x3e, 
    0x40, 0xcb, 0xe7, 0xbd, 0xf1, 0x4d, 0xa6, 0x3d, 0x37, 0x6f, 0xd7, 0xbb, 
    0xd7, 0x5e, 0x95, 0x3e, 0xc2, 0xcd, 0x76, 0x3e, 0xe8, 0x1a, 0x8e, 0xbe, 
    0xa0, 0xfe, 0x56, 0x3e, 0x72, 0xc2, 0x34, 0x3e, 0x12, 0xee, 0xa6, 0xbe, 
    0xe4, 0xcf, 0xda, 0x3d, 0x93, 0x01, 0x5f, 0x3e, 0x20, 0x2b, 0x76, 0x3d, 
    0x71, 0x6c, 0x20, 0x3e, 0xe1, 0xea, 0xe5, 0x3d, 0x1e, 0xc1, 0xdc, 0xbd, 
    0x47, 0x6b, 0x2f, 0x3e, 0x5d, 0x61, 0xa3, 0x3d, 0xdf, 0xf8, 0xd5, 0xbd, 
    0x95, 0x2a, 0xe7, 0x3d, 0x96, 0xfb, 0xc8, 0x3d, 0x4d, 0x8f, 0xe8, 0xbd, 
    0xe7, 0xe4, 0x90, 0xbe, 0xf0, 0x58, 0x91, 0xbd, 0x4e, 0x3c, 0x41, 0xbd, 
    0xf7, 0x95, 0x39, 0x3d, 0xb1, 0x5d, 0x14, 0x3d, 0xc3, 0xde, 0x6c, 0x3e, 
    0x94, 0x52, 0x8c, 0x3e, 0x6d, 0x55, 0x4b, 0x3e, 0x71, 0xa7, 0x15, 0xbe, 
    0x75, 0xdc, 0x3a, 0xbe, 0xb2, 0x78, 0x20, 0xbe, 0x72, 0xb8, 0x0c, 0xbe, 
    0xb9, 0x43, 0xa6, 0xbd, 0x05, 0xac, 0xf4, 0x3d, 0x26, 0x6a, 0xab, 0xbc, 
    0xb6, 0xa4, 0x2e, 0x3d, 0x4f, 0xcd, 0xe1, 0xbc, 0x7c, 0x79, 0xfb, 0xbd, 
    0xa1, 0xf3, 0x9e, 0xbe, 0x51, 0x4c, 0x5a, 0x3d, 0xe5, 0xb7, 0x74, 0xbd, 
    0x54, 0xbc, 0x6e, 0xbe, 0xe9, 0x47, 0x28, 0x3e, 0xdc, 0x70, 0xe4, 0xbd, 
    0x5b, 0xa8, 0xe8, 0xbd, 0x80, 0x6c, 0x3e, 0xbe, 0x4f, 0xd5, 0x3d, 0xbd, 
    0x88, 0x89, 0xad, 0x3d, 0xe9, 0x84, 0x8f, 0x3e, 0xaa, 0x33, 0x7f, 0x3d, 
    0xd4, 0x1f, 0x64, 0xbe, 0x4d, 0xe0, 0x94, 0x3e, 0x93, 0x0e, 0x2b, 0x3e, 
    0x49, 0xdb, 0x7b, 0xbb, 0x0b, 0xb3, 0x03, 0x3e, 0xc9, 0xf3, 0xc8, 0xbe, 
    0xe1, 0xd4, 0x81, 0xbe, 0x4e, 0xe9, 0x3f, 0xbd, 0x80, 0x78, 0x34, 0x3e, 
    0xbb, 0x8e, 0x54, 0x3e, 0x54, 0xa7, 0xb7, 0x3e, 0x00, 0xd6, 0xab, 0x3e, 
    0x0f, 0x1b, 0x93, 0x3d, 0x93, 0x51, 0xbb, 0x3e, 0xaa, 0xab, 0xe1, 0xbd, 
    0x7d, 0x27, 0xa1, 0x3e, 0x21, 0x2e, 0xd4, 0x3c, 0xb7, 0x49, 0x4d, 0xbe, 
    0xc7, 0xa0, 0x19, 0x3e, 0xda, 0x82, 0xba, 0x3d, 0xf3, 0x1c, 0xcf, 0x3d, 
    0x82, 0x8f, 0x4b, 0xbe, 0x6d, 0xde, 0xe5, 0xbd, 0x17, 0x8d, 0x99, 0xbd, 
    0x31, 0xd3, 0xfe, 0xbc, 0x1d, 0xc9, 0x53, 0x3e, 0x64, 0xec, 0xca, 0x3c, 
    0x7c, 0x43, 0xc6, 0xbe, 0xdf, 0xe2, 0x3f, 0x3e, 0x15, 0x00, 0xcc, 0x3d, 
    0xa7, 0x0d, 0x60, 0xbd, 0x8a, 0x90, 0x95, 0xbe, 0x6d, 0xc9, 0x16, 0xbe, 
    0x77, 0xb0, 0xaa, 0x3d, 0xfa, 0x08, 0x7d, 0x3e, 0x5e, 0xf2, 0x36, 0x3c, 
    0x9a, 0x11, 0x83, 0x3e, 0x72, 0x14, 0x89, 0x3c, 0xd1, 0xd2, 0x5c, 0xbd, 
    0x4a, 0x49, 0x87, 0xbe, 0xad, 0xf1, 0xa4, 0xbd, 0xd3, 0x84, 0x37, 0x3d, 
    0x7d, 0xc6, 0x77, 0xbc, 0x66, 0xfb, 0x91, 0xbe, 0x55, 0xc8, 0x80, 0xbe, 
    0xcc, 0xf9, 0xc1, 0xbc, 0x29, 0x32, 0x26, 0xbe, 0x03, 0xb3, 0xab, 0x3c, 
    0xd2, 0x56, 0xd8, 0x3d, 0x6c, 0xe5, 0xbb, 0xbd, 0x21, 0xcd, 0x7b, 0x39, 
    0x11, 0xdd, 0xf6, 0xbc, 0x36, 0x66, 0xa5, 0x3d, 0xc9, 0x7c, 0x27, 0x3c, 
    0x78, 0x23, 0x5e, 0x3e, 0xdd, 0x4f, 0x20, 0x3d, 0xa8, 0x31, 0x4a, 0x3e, 
    0xb6, 0x64, 0x12, 0x3e, 0x83, 0xac, 0xaa, 0xbd, 0x45, 0x44, 0x8b, 0x3e, 
    0x1c, 0x18, 0x51, 0x3e, 0xe4, 0x30, 0xee, 0x3d, 0x30, 0xa0, 0xb4, 0xbd, 
    0x9a, 0xc6, 0x89, 0xbd, 0xc5, 0x01, 0x38, 0xbe, 0xca, 0x22, 0x9d, 0xbd, 
    0xbb, 0x7e, 0x48, 0xbe, 0x46, 0x36, 0x05, 0x3e, 0xdc, 0x56, 0x8c, 0x3e, 
    0x42, 0xb6, 0x3b, 0x3e, 0x72, 0x0f, 0x16, 0x3d, 0x13, 0x51, 0x8c, 0x3e, 
    0xf8, 0x21, 0x44, 0x3e, 0x69, 0xb1, 0x82, 0x3e, 0x8e, 0x11, 0xa7, 0xbe, 
    0x90, 0x56, 0xd0, 0xbd, 0x9d, 0x26, 0xb6, 0xbe, 0x04, 0x8a, 0x44, 0x3d, 
    0xa5, 0x5f, 0xc5, 0x3e, 0x6e, 0xda, 0x5f, 0xbe, 0x9c, 0x1e, 0x34, 0xbd, 
    0xd4, 0xc0, 0xaf, 0x3e, 0x10, 0xc0, 0x36, 0xbe, 0x8d, 0x55, 0x84, 0x3d, 
    0xd5, 0x87, 0x8b, 0x3e, 0x3b, 0x4c, 0xfe, 0xbd, 0x31, 0x5f, 0x10, 0xbe, 
    0xa3, 0xe8, 0x48, 0xbe, 0x29, 0xba, 0x8e, 0xbd, 0x2e, 0xe6, 0xf8, 0xbd, 
    0xf1, 0x35, 0x3b, 0x3e, 0x86, 0x3d, 0x66, 0x3d, 0x2a, 0xc2, 0x86, 0xba, 
    0xc6, 0xaa, 0x92, 0xbe, 0x35, 0xa3, 0x32, 0x3d, 0xfa, 0x77, 0x82, 0x3e, 
    0x07, 0x41, 0x38, 0x3e, 0x50, 0x33, 0x84, 0x3e, 0x85, 0x4e, 0xcf, 0x3d, 
    0x47, 0x52, 0x45, 0xbe, 0x80, 0x5c, 0xc4, 0x3e, 0xb7, 0x99, 0x17, 0xbe, 
    0x56, 0xcf, 0xf9, 0xbd, 0x99, 0x6a, 0xba, 0xba, 0x4d, 0x94, 0xc8, 0xbc, 
    0x2b, 0x7e, 0xdc, 0xbd, 0x31, 0x3a, 0xa3, 0x3e, 0xec, 0x19, 0x1e, 0x3e, 
    0xd3, 0xd3, 0x4a, 0x3d, 0x73, 0xca, 0x8b, 0x3d, 0xa3, 0xaf, 0xc2, 0x38, 
    0x5c, 0x88, 0x10, 0x3d, 0x9d, 0xab, 0x09, 0x3e, 0xa8, 0x1f, 0x61, 0xbe, 
    0xcb, 0x35, 0x82, 0xbc, 0x1c, 0xd2, 0x24, 0xbe, 0x79, 0x9a, 0xda, 0xbd, 
    0x46, 0x27, 0x30, 0xbe, 0x6b, 0x4a, 0x6f, 0x3e, 0x2e, 0x70, 0xa1, 0xbc, 
    0x91, 0x38, 0xa1, 0xbe, 0x9e, 0xd5, 0xd5, 0x3d, 0xda, 0x0f, 0xf1, 0xbd, 
    0x01, 0x22, 0x18, 0x3e, 0x3f, 0x85, 0xfe, 0xbd, 0x5b, 0xd0, 0xfe, 0xbd, 
    0x45, 0x10, 0xfa, 0xbd, 0xc1, 0xf7, 0xac, 0x3d, 0x01, 0x5e, 0x32, 0x3e, 
    0x34, 0x36, 0x57, 0x3d, 0x72, 0xf2, 0x8d, 0xba, 0x33, 0x61, 0x7a, 0xbd, 
    0x8f, 0xaf, 0x0a, 0xbd, 0xa3, 0x7d, 0x04, 0x3d, 0xc7, 0x1f, 0xaf, 0xbe, 
    0x07, 0x3a, 0x8c, 0xbe, 0x63, 0x9e, 0x01, 0xbe, 0x3b, 0xab, 0x8b, 0xbe, 
    0xbd, 0x90, 0xa7, 0x3d, 0xce, 0x12, 0x6b, 0xbe, 0xef, 0x1a, 0x1e, 0xbe, 
    0xad, 0xbc, 0xb4, 0x3d, 0x68, 0x88, 0x30, 0xbc, 0xc1, 0xb5, 0x4b, 0xbd, 
    0x8d, 0xc3, 0xa9, 0x3e, 0x7c, 0xfd, 0xe4, 0x3d, 0xa0, 0x94, 0x97, 0xbe, 
    0x98, 0x78, 0xa2, 0x3d, 0xe6, 0xbd, 0x72, 0x3d, 0xb6, 0xb0, 0x07, 0x3d, 
    0x6b, 0x5d, 0xc3, 0x3c, 0x3f, 0x25, 0xba, 0xbe, 0xe5, 0x9a, 0x95, 0xbd, 
    0x5a, 0x68, 0xa1, 0xbe, 0x85, 0x97, 0x04, 0x3e, 0xb3, 0xa7, 0x09, 0x3d, 
    0xeb, 0xdf, 0x50, 0xbd, 0x25, 0xce, 0x11, 0xbd, 0xe0, 0xfc, 0x30, 0xbc, 
    0x18, 0x05, 0xb1, 0x3d, 0xe1, 0x23, 0x2e, 0x3d, 0x18, 0xcf, 0xa4, 0xbd, 
    0xa9, 0x53, 0xb8, 0x3e, 0xd7, 0xc8, 0x7c, 0xbc, 0xee, 0x2f, 0x96, 0xbe, 
    0x93, 0x79, 0xed, 0xbd, 0x08, 0xb9, 0x6b, 0x3e, 0x3e, 0xc1, 0x8c, 0xbd, 
    0xa1, 0xcf, 0x5f, 0x3e, 0xb1, 0xfb, 0xc1, 0x3e, 0x91, 0xbe, 0x0d, 0x3d, 
    0x6c, 0x7f, 0x32, 0x3e, 0x18, 0xb2, 0x2b, 0xbe, 0x27, 0xc4, 0x70, 0xbe, 
    0x01, 0x41, 0x31, 0xbd, 0x2b, 0x29, 0x1f, 0xbe, 0xf5, 0x1f, 0xc5, 0x3e, 
    0x81, 0xe9, 0x26, 0x3e, 0x93, 0xc2, 0xab, 0x3b, 0x80, 0x30, 0x75, 0x3e, 
    0x45, 0x17, 0x78, 0x3d, 0x3a, 0xb6, 0x68, 0x3c, 0x31, 0xc8, 0xac, 0x3c, 
    0xac, 0x31, 0xe5, 0x3b, 0x23, 0x30, 0xe1, 0xbb, 0x87, 0x90, 0xf9, 0x3d, 
    0xaa, 0x7b, 0x5e, 0xbe, 0x0d, 0x96, 0xb6, 0xbd, 0x1e, 0xb4, 0x38, 0x3e, 
    0xa5, 0x64, 0x16, 0x3e, 0x2f, 0x84, 0x11, 0xbc, 0x82, 0x40, 0xf4, 0x3d, 
    0xae, 0x3f, 0x45, 0xbe, 0x37, 0xe0, 0x68, 0xbe, 0x33, 0xaa, 0xc7, 0xbd, 
    0x1c, 0xf1, 0x80, 0x3e, 0xb9, 0xac, 0xee, 0x3d, 0x88, 0xda, 0x92, 0x3d, 
    0x51, 0xdc, 0x76, 0xbc, 0xcf, 0x0d, 0x81, 0x3d, 0x53, 0xed, 0x14, 0xbd, 
    0xff, 0x98, 0x78, 0x3d, 0x01, 0xce, 0x1d, 0xbe, 0xc7, 0x2d, 0xc6, 0xbc, 
    0x65, 0x3e, 0x76, 0xbd, 0x4f, 0xe0, 0x58, 0x3e, 0x51, 0x03, 0xd5, 0x3d, 
    0x57, 0xfa, 0xb4, 0xbd, 0xb9, 0x3b, 0xa9, 0xbd, 0x1f, 0x34, 0x2e, 0xbe, 
    0x42, 0xab, 0x14, 0xbd, 0x6b, 0x2f, 0xe5, 0x3d, 0xe1, 0xd3, 0x3f, 0x3d, 
    0xa6, 0x23, 0x80, 0xbe, 0x9c, 0x0a, 0x08, 0xbe, 0x87, 0xda, 0x0c, 0xbe, 
    0x5a, 0x96, 0x53, 0x3d, 0x61, 0x06, 0x24, 0xbe, 0x83, 0x6c, 0x06, 0xbc, 
    0xea, 0xa0, 0xdb, 0xbd, 0x30, 0x4c, 0xa6, 0xbc, 0x5f, 0xe3, 0x09, 0xbe, 
    0xe9, 0x87, 0x31, 0x3d, 0x62, 0xc8, 0x47, 0xbd, 0x46, 0x1c, 0x58, 0x3e, 
    0x9a, 0x70, 0xde, 0xbd, 0xa3, 0x4b, 0xc5, 0xbc, 0x5c, 0x54, 0x94, 0x3d, 
    0x87, 0xc0, 0x56, 0xbc, 0x41, 0x6b, 0x2a, 0x3e, 0x2f, 0xe1, 0x50, 0x3b, 
    0x95, 0x30, 0xfb, 0xbd, 0xc5, 0xac, 0xf6, 0xbd, 0xcc, 0x0f, 0x77, 0xbe, 
    0xdc, 0x4a, 0x4a, 0xbe, 0xd0, 0xe8, 0x19, 0x3d, 0x27, 0xfb, 0xcf, 0xbd, 
    0xa1, 0x7f, 0x09, 0xbe, 0xed, 0xc7, 0xa4, 0xbd, 0x97, 0x53, 0x22, 0x3e, 
    0x36, 0xca, 0x90, 0x3e, 0x39, 0xcb, 0xf9, 0x3c, 0xa2, 0x6d, 0x5a, 0xbe, 
    0xee, 0x40, 0xdd, 0x3d, 0xb6, 0x8c, 0x8b, 0x3c, 0x49, 0xd8, 0xcf, 0x3d, 
    0xc1, 0xa6, 0xb3, 0xbc, 0x6d, 0xe6, 0x3a, 0xbe, 0x2b, 0x3b, 0x9d, 0xbb, 
    0xa9, 0x42, 0x34, 0xbc, 0x4c, 0x7e, 0xc3, 0x3d, 0x33, 0x27, 0x50, 0x3e, 
    0xc5, 0x27, 0x25, 0x3e, 0x4e, 0xcb, 0x8a, 0xbe, 0x50, 0x8a, 0x26, 0x3e, 
    0xe5, 0x90, 0x9c, 0xbd, 0x89, 0x83, 0x43, 0xbc, 0xf1, 0x31, 0x5a, 0x3e, 
    0xf2, 0x4d, 0x24, 0xbe, 0xa6, 0xd5, 0x3d, 0xbe, 0x25, 0x55, 0x68, 0xbe, 
    0x58, 0x24, 0xd7, 0xbd, 0xe5, 0x6b, 0xb6, 0x3e, 0xc0, 0xe2, 0xee, 0x3d, 
    0x04, 0xc9, 0xbc, 0x3d, 0x8d, 0x7f, 0x7c, 0xbd, 0x5a, 0x5d, 0x92, 0x3d, 
    0x07, 0xef, 0x3d, 0xbe, 0xa7, 0xec, 0xb9, 0xbe, 0x8b, 0x5c, 0x6c, 0x3d, 
    0xa9, 0xcc, 0x3f, 0xbe, 0xc1, 0xf7, 0x90, 0x3e, 0xfd, 0xbb, 0x3d, 0xbe, 
    0xae, 0xb4, 0x1f, 0xbe, 0x51, 0x30, 0x2e, 0x3e, 0xc9, 0xd5, 0x0b, 0x3e, 
    0x50, 0x38, 0x93, 0xbe, 0xd4, 0x7d, 0x62, 0x3e, 0x37, 0x81, 0xa8, 0x3e, 
    0xb8, 0xef, 0x27, 0x3e, 0x1e, 0x79, 0x12, 0x3e, 0xfa, 0xaa, 0x92, 0xbe, 
    0x2d, 0x97, 0x4b, 0xbe, 0x8a, 0x69, 0xe2, 0x3c, 0x3e, 0xb2, 0x3e, 0x3b, 
    0x6a, 0x15, 0x8d, 0xbe, 0xcc, 0xef, 0x8e, 0x3e, 0x2e, 0x19, 0x43, 0xbe, 
    0x09, 0x47, 0x3a, 0x3e, 0xe6, 0x51, 0x1f, 0x3e, 0x09, 0x52, 0x37, 0xbd, 
    0x55, 0xe4, 0x81, 0xbe, 0xc0, 0xc7, 0xfd, 0xbd, 0x80, 0x63, 0x2b, 0x3e, 
    0x6e, 0xd6, 0x29, 0x3d, 0xd9, 0x8d, 0xe3, 0xbd, 0x51, 0xef, 0xa4, 0xbe, 
    0x89, 0x6b, 0x9c, 0xbd, 0x5f, 0x49, 0x5a, 0x3d, 0xbc, 0x96, 0x15, 0x3e, 
    0x73, 0xff, 0x57, 0x3e, 0x81, 0xf1, 0x5f, 0x3e, 0xfb, 0xf5, 0x2a, 0xbe, 
    0x15, 0xe8, 0x97, 0xbe, 0x7b, 0xae, 0xe8, 0xbd, 0x69, 0xd3, 0x89, 0xbd, 
    0xac, 0xc6, 0x6f, 0xbe, 0xdf, 0x6f, 0xc2, 0x3d, 0x02, 0xe5, 0xbb, 0x3d, 
    0x5a, 0xb3, 0x59, 0x3d, 0xed, 0xc5, 0x8c, 0x3e, 0x55, 0x6d, 0x1c, 0xbe, 
    0x13, 0x79, 0xe9, 0xbd, 0xd9, 0x51, 0x24, 0x3e, 0x68, 0x2c, 0x17, 0x3d, 
    0x76, 0x6d, 0x7f, 0x3e, 0x1d, 0xbf, 0x70, 0x3d, 0xc1, 0xa1, 0x68, 0xbd, 
    0xed, 0xc7, 0xa1, 0x3c, 0x10, 0x5b, 0xee, 0xbd, 0xca, 0x26, 0xda, 0x3d, 
    0xcd, 0xe0, 0xde, 0xbd, 0xe9, 0x68, 0xa7, 0xbe, 0xa3, 0xbb, 0x2c, 0xbe, 
    0xa1, 0x64, 0x8a, 0xbe, 0x63, 0x14, 0x7c, 0x3d, 0x44, 0xa6, 0x81, 0x3e, 
    0xbb, 0x8a, 0x50, 0x3d, 0x39, 0xb9, 0x40, 0x3e, 0x62, 0x72, 0x5c, 0xbe, 
    0xc8, 0xd8, 0xe6, 0xba, 0x96, 0x5c, 0x2f, 0x3e, 0xb2, 0x90, 0x00, 0x3d, 
    0x24, 0x8d, 0x13, 0x3d, 0x5c, 0x67, 0x2e, 0xbe, 0x12, 0x46, 0x07, 0xbd, 
    0x28, 0x04, 0x95, 0x3e, 0x09, 0x0b, 0x90, 0x3e, 0xac, 0x35, 0x8c, 0x3d, 
    0x63, 0x88, 0x3c, 0x3e, 0x3c, 0xf5, 0x0b, 0xbe, 0x07, 0x7c, 0x06, 0xbd, 
    0x42, 0x23, 0x4b, 0xbe, 0x3e, 0x71, 0x8a, 0x3e, 0x80, 0x73, 0x77, 0x3c, 
    0xa9, 0x93, 0xa8, 0x3d, 0x10, 0x9d, 0xc7, 0xbd, 0x25, 0xd1, 0x95, 0xbe, 
    0x5a, 0xbf, 0x4a, 0x3d, 0xfa, 0x4e, 0xa4, 0xbd, 0xf4, 0xd5, 0x3d, 0x3d, 
    0x74, 0x57, 0x54, 0x3c, 0x55, 0xf2, 0x9e, 0x3c, 0xd2, 0xf7, 0xf1, 0xbd, 
    0x58, 0x3a, 0x81, 0xbe, 0xf6, 0xab, 0x9b, 0xbe, 0xa2, 0x27, 0x8a, 0x3e, 
    0x25, 0xe8, 0x83, 0xbe, 0xfb, 0xa1, 0x6d, 0x3e, 0x38, 0xe7, 0xe2, 0xbd, 
    0x54, 0x4f, 0x61, 0x3e, 0x76, 0xf2, 0xcb, 0xbd, 0x92, 0x40, 0xae, 0xbe, 
    0x19, 0xd2, 0x0d, 0x3d, 0xb9, 0x2f, 0x21, 0x3e, 0xaf, 0xa7, 0x5e, 0x3c, 
    0xc6, 0x99, 0x83, 0xbd, 0x13, 0x09, 0x5d, 0x3e, 0x71, 0xb0, 0x2b, 0xbe, 
    0x02, 0x56, 0x6f, 0xbe, 0xc1, 0xa2, 0x98, 0xbd, 0xf8, 0xd8, 0x69, 0x3c, 
    0x79, 0xd2, 0xa2, 0xbe, 0x1b, 0x30, 0xfb, 0xbd, 0xd2, 0x4b, 0xa3, 0xbd, 
    0xae, 0xd9, 0x3e, 0x3e, 0xdd, 0x3b, 0x51, 0xbe, 0x60, 0xe7, 0x8c, 0xbe, 
    0xfc, 0x8b, 0xa7, 0xbe, 0x50, 0x41, 0x79, 0xbd, 0x5d, 0x17, 0xf2, 0x3d, 
    0x6e, 0xbb, 0x16, 0x3c, 0xe7, 0x19, 0x18, 0x3e, 0xb7, 0xbe, 0xe1, 0x3d, 
    0x77, 0xd4, 0x8a, 0x3e, 0xb1, 0x67, 0xdd, 0xbd, 0x1e, 0xc9, 0x98, 0xbd, 
    0x1e, 0x4e, 0xa0, 0x3e, 0x60, 0x92, 0x9e, 0x3d, 0x43, 0x96, 0x5b, 0xbc, 
    0x72, 0x73, 0x59, 0x3d, 0x8d, 0x30, 0xf1, 0x3c, 0x4b, 0x54, 0xb6, 0x3e, 
    0xdc, 0x2b, 0xa0, 0x3e, 0x9f, 0x54, 0x48, 0xbe, 0x1a, 0xc8, 0x9b, 0xbe, 
    0x77, 0xba, 0x0b, 0x3e, 0x5a, 0x9d, 0x64, 0xbe, 0x79, 0xc3, 0xa0, 0xbe, 
    0xa6, 0x0c, 0x48, 0xbd, 0x7f, 0x29, 0x93, 0x3e, 0x41, 0xd6, 0x31, 0x3d, 
    0x17, 0xc8, 0x8f, 0xbd, 0xd5, 0x70, 0x89, 0xbd, 0xdb, 0x35, 0xa8, 0xbe, 
    0xeb, 0xa9, 0x1b, 0xbe, 0x7e, 0x7d, 0x4b, 0xbe, 0xdf, 0xd7, 0x11, 0x3e, 
    0x68, 0x91, 0xa2, 0x3d, 0x5a, 0x6d, 0x9c, 0xbc, 0xf6, 0x4c, 0x81, 0xbe, 
    0x90, 0xdd, 0x87, 0xbe, 0x40, 0x55, 0x1c, 0x3d, 0xa5, 0xe7, 0x7b, 0x3a, 
    0x2e, 0x47, 0x56, 0x3e, 0x84, 0xd6, 0xa0, 0xbd, 0xe4, 0xc7, 0x4c, 0xbe, 
    0xe9, 0x69, 0x4e, 0x3e, 0xe4, 0x95, 0xbf, 0x3d, 0xa7, 0x25, 0x16, 0x3e, 
    0x95, 0xab, 0xb8, 0xbc, 0xa8, 0x7f, 0xb1, 0xbd, 0x96, 0x8c, 0xb7, 0xbd, 
    0x34, 0x90, 0xcc, 0xbe, 0xdf, 0x62, 0x5a, 0xbe, 0x58, 0xbe, 0x48, 0xbc, 
    0x04, 0x69, 0xb2, 0xbe, 0xf8, 0xa7, 0x0a, 0xbe, 0x9b, 0x7a, 0x24, 0x3e, 
    0xfc, 0x48, 0xa9, 0xbe, 0x6c, 0x63, 0x38, 0xbe, 0x14, 0x4c, 0x19, 0x3d, 
    0xdc, 0x54, 0x87, 0xbe, 0x19, 0xc1, 0x0a, 0xbe, 0xcc, 0xcf, 0x8a, 0xbe, 
    0x3a, 0x19, 0x5f, 0xbd, 0x88, 0x27, 0xb4, 0xba, 0x3a, 0x05, 0x72, 0x3d, 
    0x9f, 0x81, 0xac, 0x3e, 0x2a, 0xd7, 0x4d, 0x3c, 0x1a, 0x5d, 0x01, 0x3b, 
    0x37, 0x69, 0x6d, 0x3e, 0xf9, 0xb7, 0x83, 0xbd, 0x32, 0x0a, 0xca, 0x3d, 
    0x2d, 0xa6, 0x25, 0xbe, 0x33, 0xe6, 0xdf, 0x3d, 0x77, 0x5c, 0x23, 0x3e, 
    0x9b, 0x2c, 0xe3, 0xbd, 0x96, 0xa5, 0x85, 0xbc, 0x5a, 0x3d, 0x8c, 0x3d, 
    0xe7, 0x92, 0xed, 0xbd, 0x77, 0xfa, 0x8a, 0xbd, 0xc4, 0x7e, 0xb3, 0x3d, 
    0xa2, 0x9a, 0xe2, 0x3c, 0x57, 0x74, 0xe7, 0x3d, 0xa2, 0xdf, 0x3c, 0x3e, 
    0x45, 0xef, 0x99, 0xbe, 0x40, 0x32, 0xcc, 0x3c, 0x7e, 0x1a, 0x2f, 0x3d, 
    0xfc, 0x88, 0x4f, 0xbe, 0xba, 0x2a, 0x89, 0xbd, 0xf7, 0x83, 0x1a, 0xbe, 
    0x36, 0xab, 0x10, 0xbe, 0xf9, 0x7b, 0xbf, 0x3e, 0xb7, 0xc3, 0x12, 0x3e, 
    0xaa, 0xc8, 0x6c, 0x3e, 0x43, 0xac, 0x51, 0xbe, 0xdb, 0x48, 0x0c, 0x3e, 
    0x22, 0xb8, 0x13, 0xbd, 0x38, 0x03, 0x07, 0x3d, 0x83, 0x73, 0x33, 0x3e, 
    0x13, 0x29, 0xe5, 0xbd, 0x84, 0x89, 0x08, 0xbd, 0xde, 0x96, 0xaa, 0xbe, 
    0x79, 0x7e, 0x6e, 0xbe, 0xc5, 0xac, 0x6f, 0xbd, 0xa2, 0x34, 0xbf, 0x3c, 
    0x4b, 0xc2, 0x0c, 0xbe, 0x29, 0x2b, 0xcd, 0xbd, 0x04, 0x2e, 0x4a, 0x3c, 
    0x6e, 0x15, 0x53, 0xbe, 0xf3, 0x18, 0x18, 0xbe, 0xb9, 0x67, 0x81, 0xbe, 
    0x14, 0x87, 0xb4, 0x3c, 0x29, 0xf6, 0x25, 0xbe, 0x23, 0xbb, 0xab, 0xbc, 
    0x60, 0x44, 0x13, 0x3e, 0x64, 0xaf, 0x68, 0x3c, 0xf6, 0xd9, 0xab, 0x3d, 
    0x7b, 0x08, 0xfd, 0xbb, 0xa8, 0x8a, 0x03, 0xbe, 0x4c, 0xe3, 0x1e, 0x3e, 
    0xa7, 0x8b, 0x1a, 0x3e, 0x3a, 0x94, 0x24, 0x3e, 0x39, 0x6c, 0x3f, 0xbe, 
    0x6d, 0xc9, 0x0b, 0x3e, 0xc6, 0x75, 0xe6, 0xbd, 0x56, 0x69, 0x35, 0x3e, 
    0xed, 0xf4, 0xd6, 0xbd, 0x34, 0x2b, 0x6e, 0xbd, 0xef, 0x41, 0x9e, 0xbe, 
    0x17, 0x19, 0x84, 0x3e, 0xfa, 0x8c, 0x90, 0x3e, 0x2f, 0x48, 0x4a, 0x3e, 
    0x31, 0x11, 0xa6, 0xbc, 0x38, 0xe5, 0xc7, 0x3e, 0x23, 0xb6, 0x41, 0xbe, 
    0x8d, 0xb5, 0x96, 0x3e, 0x5d, 0x5f, 0x89, 0x3d, 0x98, 0x96, 0x8f, 0xbe, 
    0x9b, 0xf8, 0x8c, 0x3e, 0xfe, 0x59, 0x83, 0x3c, 0x96, 0x24, 0x39, 0xbe, 
    0xf8, 0xf3, 0x74, 0xbd, 0x94, 0xd3, 0x09, 0xbd, 0x04, 0x6f, 0x88, 0x3d, 
    0xd7, 0x25, 0x01, 0xbd, 0xb2, 0x48, 0xdb, 0x3d, 0x62, 0x66, 0x19, 0xbd, 
    0xf7, 0xae, 0x55, 0xbe, 0x1e, 0x00, 0x87, 0xbe, 0x38, 0xf3, 0x29, 0x3e, 
    0xfb, 0x2a, 0xe5, 0xbd, 0xf6, 0xb6, 0x00, 0xbe, 0x37, 0x2e, 0x55, 0x3d, 
    0x56, 0xf3, 0x7b, 0xbe, 0x69, 0x82, 0x52, 0xbe, 0xa9, 0x57, 0x8f, 0x3e, 
    0xc5, 0x0d, 0x3c, 0xbd, 0x85, 0x00, 0xbb, 0x3d, 0x73, 0xed, 0xa9, 0x3d, 
    0x0f, 0xbd, 0x9d, 0xbe, 0x68, 0x51, 0xd4, 0xbd, 0x18, 0x68, 0xde, 0x3d, 
    0x7d, 0xde, 0x8d, 0xbe, 0x5c, 0x0b, 0x90, 0xbd, 0x12, 0xc6, 0x94, 0xbe, 
    0x17, 0x12, 0x48, 0xbd, 0x71, 0x4a, 0xea, 0xbd, 0xa1, 0x60, 0x10, 0xbe, 
    0xb4, 0x0f, 0xc7, 0x3d, 0x1e, 0x75, 0x6e, 0xbc, 0x7b, 0x54, 0x29, 0x3e, 
    0xf4, 0x5f, 0xbc, 0xbd, 0xa7, 0x25, 0xe5, 0xbd, 0xd7, 0x28, 0xd4, 0xbb, 
    0xf7, 0xa9, 0x24, 0xbe, 0xde, 0xa9, 0xa1, 0x3d, 0xcb, 0xc8, 0x98, 0x3e, 
    0xc1, 0x6d, 0x45, 0x3d, 0x56, 0x90, 0x8e, 0x3d, 0xbf, 0x63, 0x76, 0x3d, 
    0x51, 0xb0, 0x00, 0xbe, 0x5e, 0x82, 0x57, 0xbe, 0xbf, 0x9d, 0x85, 0xbd, 
    0x2e, 0xa4, 0x53, 0xbd, 0xc0, 0xf7, 0x0f, 0xbd, 0x06, 0x6a, 0xd8, 0xbc, 
    0x22, 0xed, 0xa5, 0x3e, 0xa5, 0xa7, 0x29, 0xbe, 0x92, 0xf9, 0x0c, 0xbe, 
    0x35, 0x4d, 0xae, 0x3e, 0x19, 0x42, 0x3b, 0x3e, 0x57, 0x06, 0x00, 0xbd, 
    0x3d, 0xf6, 0x20, 0xbe, 0x06, 0x09, 0xf1, 0x3d, 0xc7, 0xd5, 0x48, 0x3e, 
    0x20, 0x6c, 0x75, 0xbd, 0x30, 0x05, 0x03, 0x3d, 0x53, 0xff, 0x59, 0x3e, 
    0xab, 0x86, 0x6f, 0xbe, 0x41, 0x9b, 0x01, 0x3e, 0x27, 0xbc, 0x3a, 0x3d, 
    0x41, 0x78, 0xe7, 0xbd, 0xab, 0xd0, 0xa6, 0xbc, 0x9e, 0x7d, 0x4a, 0xbd, 
    0xb6, 0x14, 0x89, 0xbd, 0x86, 0x34, 0x80, 0xbe, 0x1d, 0xc0, 0x85, 0x3d, 
    0x5a, 0x60, 0xdc, 0x3c, 0x76, 0xb5, 0x4a, 0x3e, 0x20, 0x49, 0x0f, 0x3e, 
    0x1f, 0x7c, 0xe3, 0x3d, 0x02, 0xa1, 0x1f, 0xbe, 0xa7, 0xcc, 0xbf, 0x3c, 
    0x65, 0x71, 0xfe, 0xbd, 0x91, 0xa0, 0x0c, 0x3d, 0x75, 0xe6, 0x78, 0x3e, 
    0xcb, 0xc7, 0x54, 0x3d, 0x86, 0x9b, 0xb1, 0x3e, 0xa4, 0xa7, 0x4a, 0xbb, 
    0xe7, 0xe0, 0xd3, 0xbd, 0x45, 0x33, 0x90, 0xbe, 0x29, 0x8f, 0x4c, 0x3e, 
    0x59, 0x94, 0x77, 0xbe, 0x7a, 0x5c, 0x02, 0xbe, 0xa1, 0xc1, 0xbb, 0xbe, 
    0xe4, 0x3d, 0x29, 0x3e, 0xc2, 0xfe, 0x5b, 0xbd, 0xeb, 0x46, 0xa0, 0xbe, 
    0x98, 0x0a, 0x35, 0x3d, 0x00, 0x79, 0x57, 0xbd, 0x1d, 0x21, 0x3d, 0x3e, 
    0x1d, 0xeb, 0xc9, 0xbd, 0x28, 0xfd, 0x85, 0xbc, 0xfe, 0x81, 0xb2, 0xbe, 
    0x9c, 0xff, 0xf5, 0xbc, 0x63, 0xf4, 0x84, 0xbe, 0x16, 0x6e, 0x06, 0xbe, 
    0xf0, 0x80, 0x4f, 0xbe, 0x7a, 0x82, 0x3b, 0xbc, 0x4f, 0xfd, 0x90, 0x3d, 
    0xe3, 0x42, 0xa8, 0x3e, 0xa4, 0x30, 0xfa, 0xbc, 0x67, 0xb3, 0xf4, 0xbd, 
    0xb2, 0x92, 0x9f, 0xbc, 0x82, 0x7c, 0x12, 0xbd, 0xfd, 0xc3, 0x77, 0x3e, 
    0x20, 0x7d, 0x62, 0xbe, 0xe2, 0x4f, 0x83, 0x3d, 0xf5, 0xa0, 0x49, 0x3e, 
    0xa9, 0xff, 0x2e, 0xbd, 0x6a, 0x0b, 0x95, 0x3e, 0x7f, 0xc0, 0x9e, 0x3c, 
    0x65, 0xf4, 0xeb, 0xbd, 0xc0, 0xbf, 0x9c, 0x3e, 0x86, 0xdb, 0x1c, 0x3e, 
    0x06, 0x1b, 0x02, 0x3d, 0xe7, 0x7d, 0x24, 0xbe, 0xbd, 0x92, 0xfc, 0xbb, 
    0x96, 0x29, 0x6b, 0xbe, 0x84, 0x62, 0xb3, 0x3e, 0x94, 0xc6, 0x5b, 0xbe, 
    0xb7, 0x08, 0xa7, 0x3e, 0xf9, 0x54, 0x19, 0x3d, 0xf1, 0x6f, 0xb9, 0x3e, 
    0x43, 0x1f, 0x90, 0xbe, 0xda, 0x19, 0xbe, 0xbd, 0xa0, 0x20, 0x22, 0x3d, 
    0x99, 0x7e, 0x39, 0xbd, 0x78, 0xa5, 0xb0, 0x3e, 0x93, 0x91, 0x36, 0xbe, 
    0x7b, 0x50, 0xaa, 0xbd, 0x1b, 0x93, 0x33, 0xbe, 0x5f, 0x43, 0x0e, 0xbe, 
    0x48, 0x84, 0x17, 0xbe, 0xf8, 0xbd, 0x83, 0x3e, 0x73, 0xc4, 0x79, 0x3e, 
    0xfc, 0xea, 0x20, 0x3d, 0xfb, 0xa6, 0xa9, 0x3d, 0xf9, 0x60, 0x2c, 0xbc, 
    0x14, 0x21, 0x64, 0x3e, 0x83, 0x16, 0xe0, 0xbd, 0x25, 0xe7, 0x98, 0x3e, 
    0x12, 0xda, 0x24, 0x3e, 0x14, 0xa7, 0xdc, 0xbd, 0xcc, 0xcb, 0x81, 0xbe, 
    0xe6, 0x02, 0x1a, 0x3e, 0x8b, 0xbb, 0x82, 0xbd, 0x19, 0x19, 0x38, 0xbd, 
    0x89, 0xa9, 0xe3, 0x3d, 0x62, 0x72, 0x2f, 0xbe, 0xb7, 0x1a, 0xa4, 0xbb, 
    0x58, 0x18, 0x5d, 0x3e, 0xdc, 0x48, 0xcb, 0x3d, 0x0d, 0xe8, 0x65, 0xbd, 
    0xc8, 0x8f, 0x07, 0x3d, 0xe4, 0xfc, 0x83, 0xbe, 0x9e, 0xe1, 0x26, 0xbc, 
    0xe7, 0x14, 0x67, 0x3e, 0x22, 0xdb, 0x55, 0x3d, 0xe5, 0x60, 0xc3, 0xbe, 
    0x2a, 0xf3, 0x25, 0x3b, 0x78, 0xb9, 0x00, 0xbe, 0x35, 0xd0, 0xa2, 0xbe, 
    0x64, 0x57, 0x88, 0xbd, 0x56, 0x68, 0x3d, 0xbe, 0xc0, 0x2e, 0xe6, 0xbd, 
    0x2c, 0x3c, 0x78, 0x3a, 0x49, 0x79, 0xb2, 0x3d, 0x48, 0x70, 0xaf, 0x3e, 
    0x7a, 0x94, 0x2b, 0xbe, 0xbd, 0xa6, 0x45, 0xbd, 0x8e, 0x96, 0x59, 0x3e, 
    0xad, 0x2b, 0x17, 0xbe, 0xd6, 0xbc, 0x74, 0x3e, 0xeb, 0x62, 0xdb, 0x3d, 
    0xa5, 0x5d, 0x53, 0xbe, 0xab, 0xe0, 0x72, 0xbe, 0xba, 0x09, 0x81, 0xbe, 
    0xaf, 0xc9, 0x80, 0x3e, 0x31, 0xc9, 0x91, 0x3e, 0x9c, 0xd4, 0x84, 0xbd, 
    0xb6, 0x2a, 0x8e, 0xbd, 0x4a, 0xcc, 0xb9, 0xbe, 0x78, 0xf3, 0x36, 0x3e, 
    0x0c, 0x8b, 0x30, 0xbe, 0xec, 0xba, 0x7e, 0xbe, 0xe7, 0x0a, 0xb7, 0x3d, 
    0x46, 0xe1, 0xf4, 0x3d, 0xc0, 0x06, 0x7e, 0xbe, 0x0a, 0xc7, 0x7e, 0x3e, 
    0x79, 0xbe, 0x84, 0x3e, 0xb5, 0xf9, 0x19, 0xbe, 0x73, 0xb7, 0x52, 0xbe, 
    0xe1, 0x62, 0xb4, 0x3b, 0x2e, 0xf8, 0xc8, 0xbe, 0x6c, 0xcd, 0x3f, 0x3b, 
    0x11, 0x4b, 0x20, 0xbe, 0x8b, 0xf1, 0xf8, 0xbd, 0x8d, 0xc3, 0x3c, 0x3e, 
    0xa2, 0x31, 0x1d, 0xbd, 0x58, 0x7f, 0xf6, 0x3d, 0xeb, 0x98, 0x92, 0xbe, 
    0x99, 0x5f, 0x24, 0xbe, 0x6d, 0xcc, 0x3a, 0x3e, 0xb2, 0xff, 0x81, 0x3e, 
    0xa7, 0xae, 0x3b, 0xbe, 0x5f, 0xd3, 0x20, 0xbe, 0x47, 0xc6, 0x0d, 0xbe, 
    0x83, 0x71, 0x09, 0x3e, 0x8d, 0x3b, 0x1a, 0xbc, 0xc9, 0xa8, 0xe6, 0xbd, 
    0x2d, 0x31, 0xac, 0x3e, 0xe9, 0xba, 0x76, 0xbd, 0x2d, 0xf8, 0x99, 0x3e, 
    0xcc, 0x73, 0x9b, 0x3e, 0xc9, 0xb1, 0xd8, 0x3d, 0x8a, 0x2f, 0x75, 0x3e, 
    0x27, 0x21, 0xd4, 0x3d, 0xb8, 0xe0, 0x97, 0xbe, 0xb4, 0x27, 0x3c, 0x3e, 
    0x61, 0x8c, 0x33, 0xbe, 0xfa, 0x16, 0xc3, 0xbd, 0x8d, 0xbb, 0x3e, 0x3d, 
    0x9d, 0x9d, 0xab, 0xbc, 0x92, 0x1a, 0xa0, 0x3e, 0x67, 0x46, 0xfe, 0x3b, 
    0x35, 0x8d, 0xa4, 0xbb, 0xf4, 0xb2, 0x20, 0xbe, 0x9a, 0xc0, 0xad, 0x3e, 
    0x58, 0xd1, 0xa1, 0x3c, 0x88, 0xe1, 0x08, 0x3d, 0x2b, 0xe5, 0x8f, 0xbc, 
    0xef, 0x42, 0xba, 0x3c, 0x8a, 0x4f, 0x67, 0x3d, 0x67, 0xb0, 0x0d, 0xbb, 
    0x8e, 0x19, 0x77, 0x3e, 0x5f, 0x54, 0x8f, 0x3c, 0x98, 0xd0, 0x86, 0x3e, 
    0x86, 0x77, 0xf3, 0x3c, 0x84, 0xdb, 0x4f, 0x3c, 0x0f, 0xb7, 0x7d, 0xbd, 
    0x5e, 0x55, 0x2e, 0x3e, 0xb4, 0x13, 0x3f, 0xbe, 0x80, 0x93, 0x3e, 0xbd, 
    0x02, 0x66, 0x12, 0x3e, 0x3b, 0xfc, 0x32, 0xbd, 0xa3, 0x15, 0xc4, 0xbd, 
    0x1c, 0x4f, 0x32, 0x3e, 0x43, 0xad, 0x98, 0xbd, 0x44, 0x2c, 0x0e, 0x3d, 
    0x8e, 0x1e, 0x0f, 0xbe, 0x61, 0xc0, 0x72, 0x3e, 0x20, 0x28, 0x30, 0x3e, 
    0xa9, 0x53, 0x2b, 0xbe, 0xac, 0x6b, 0x02, 0xbd, 0x11, 0xf9, 0x18, 0xbe, 
    0x47, 0x24, 0xe2, 0x3d, 0x00, 0x3b, 0x25, 0x3e, 0xc3, 0x36, 0x88, 0x3c, 
    0xe2, 0x91, 0x90, 0x3e, 0x7d, 0x10, 0x4e, 0xbb, 0xf7, 0x57, 0xbc, 0xbd, 
    0xbd, 0x6f, 0xd5, 0x3b, 0x13, 0x07, 0xec, 0x3b, 0x0b, 0x82, 0xc6, 0x3d, 
    0xe5, 0xa9, 0x2d, 0x3e, 0x94, 0x12, 0x1d, 0xbd, 0x70, 0x13, 0x2a, 0x3e, 
    0x73, 0x9e, 0x1a, 0x3e, 0xcb, 0xa9, 0x05, 0x3e, 0x97, 0xdc, 0x1f, 0x3e, 
    0xdf, 0xbd, 0xa6, 0xbe, 0x1f, 0x8e, 0x13, 0x3e, 0x8c, 0x6c, 0xcf, 0x3d, 
    0xa3, 0x19, 0x62, 0xbd, 0xd6, 0xa9, 0x91, 0xbe, 0x33, 0x13, 0xa7, 0x3e, 
    0x2f, 0x0f, 0x78, 0xbe, 0x3b, 0x61, 0x72, 0x3e, 0x8a, 0x03, 0x2e, 0x3e, 
    0x46, 0x3e, 0xba, 0x3d, 0x0d, 0xc7, 0x6f, 0xbd, 0x6f, 0x8c, 0xe4, 0xbc, 
    0xef, 0xff, 0x9e, 0xbd, 0x7c, 0x54, 0x9e, 0xbc, 0xf2, 0xbc, 0x3e, 0xbe, 
    0x23, 0x59, 0x03, 0x3e, 0xa4, 0x17, 0x18, 0xbd, 0x6c, 0x92, 0xa6, 0xbe, 
    0xd4, 0xf8, 0xc9, 0xbd, 0x9c, 0x77, 0xc0, 0x3e, 0xec, 0x3e, 0x00, 0xbe, 
    0x8b, 0x2d, 0x72, 0xbd, 0x75, 0x7e, 0x91, 0x3d, 0x8a, 0x2a, 0xd9, 0xbd, 
    0x92, 0xe1, 0x69, 0xbd, 0x9d, 0xfc, 0x80, 0x3e, 0x5a, 0x62, 0x7d, 0x3e, 
    0x60, 0x30, 0x04, 0x3e, 0x9a, 0xf3, 0x9b, 0xbe, 0xc1, 0x8e, 0x1b, 0xbe, 
    0xa3, 0xd7, 0x03, 0x3e, 0xb1, 0x63, 0xe4, 0xba, 0x90, 0xbd, 0x5b, 0xbe, 
    0x8f, 0xc0, 0x27, 0xbe, 0xd4, 0x1a, 0x55, 0x3b, 0xaa, 0x1d, 0x04, 0x3d, 
    0x7d, 0x81, 0xd3, 0x3d, 0x65, 0xcb, 0x2e, 0x3e, 0x81, 0xdc, 0xf9, 0x3d, 
    0xe2, 0x45, 0x16, 0x3e, 0x4d, 0x15, 0x46, 0x3d, 0xb1, 0x6b, 0x37, 0xbc, 
    0x86, 0xf5, 0x8f, 0x3c, 0x17, 0x04, 0x91, 0x3b, 0xef, 0x36, 0x95, 0xbe, 
    0x6c, 0xd1, 0x4e, 0x3e, 0xe2, 0x8e, 0x04, 0xbe, 0xef, 0x92, 0x3a, 0x3e, 
    0x2b, 0x51, 0x46, 0x3e, 0xb5, 0x27, 0x5f, 0xbe, 0x8f, 0xe3, 0x8d, 0xbd, 
    0xaf, 0xf7, 0x90, 0xbd, 0xfe, 0x9c, 0xa5, 0x3c, 0xb9, 0xae, 0x3a, 0xbd, 
    0x08, 0x35, 0xea, 0xbd, 0xa6, 0x03, 0x4f, 0x3c, 0x75, 0xdf, 0xe2, 0xbd, 
    0x81, 0x20, 0xa8, 0x3e, 0x9b, 0x14, 0x1d, 0xbe, 0x04, 0x80, 0x4b, 0x3e, 
    0x28, 0xa3, 0x68, 0x3e, 0x34, 0xee, 0x8f, 0xbd, 0x41, 0xfa, 0x5c, 0xbe, 
    0x2e, 0x58, 0x4b, 0x3d, 0x21, 0x0d, 0xb5, 0xba, 0x13, 0x6a, 0x8c, 0x3e, 
    0xc8, 0x2b, 0xc3, 0xbe, 0x5a, 0xa2, 0xb2, 0xbe, 0x9d, 0xc9, 0x95, 0x3e, 
    0x44, 0xb8, 0x84, 0xbd, 0x0d, 0x83, 0x55, 0xbe, 0x74, 0x04, 0x95, 0xbe, 
    0x6d, 0x9d, 0x49, 0x3e, 0x7a, 0xb6, 0xab, 0x3d, 0x64, 0xea, 0xd3, 0x3d, 
    0xdc, 0xf7, 0x73, 0xbc, 0xfe, 0x05, 0x21, 0x3e, 0x5f, 0x12, 0x35, 0xbe, 
    0x79, 0x50, 0x3a, 0xbe, 0x6e, 0x18, 0x17, 0xbe, 0xb5, 0x66, 0xa0, 0xbb, 
    0x8b, 0xcf, 0x52, 0xbe, 0x23, 0x6d, 0x0e, 0xbd, 0x68, 0xd8, 0xe2, 0x3d, 
    0x60, 0x93, 0x7a, 0xbe, 0x88, 0xad, 0x43, 0xbe, 0xf0, 0x80, 0x8f, 0x3e, 
    0x11, 0x25, 0xad, 0x3d, 0x72, 0x3e, 0x5b, 0x3d, 0x1d, 0x69, 0x2d, 0xbe, 
    0x34, 0xb1, 0x03, 0xbd, 0xd0, 0x93, 0x92, 0x3e, 0x4e, 0xf3, 0xff, 0xff, 
    0x04, 0x00, 0x00, 0x00, 0x00, 0x0c, 0x00, 0x00, 0x5d, 0x2a, 0x54, 0x3e, 
    0xfa, 0x24, 0x74, 0xbe, 0x4d, 0xc8, 0xdc, 0xbd, 0x45, 0x3b, 0xf2, 0x3e, 
    0x15, 0x69, 0x96, 0xbe, 0x79, 0xfd, 0x99, 0xbe, 0x6e, 0xe3, 0x1d, 0xbe, 
    0xf2, 0xfb, 0x13, 0x3e, 0x3e, 0x39, 0x1e, 0xbe, 0xd4, 0xd5, 0x48, 0xbe, 
    0x12, 0x3e, 0x10, 0x3f, 0xb7, 0x63, 0x8b, 0x3e, 0x74, 0x2d, 0xac, 0xbe, 
    0x40, 0xf0, 0x38, 0x3f, 0x3c, 0xd8, 0x0c, 0xbf, 0x1c, 0x22, 0x1b, 0xbf, 
    0x6a, 0x2d, 0xc0, 0x3e, 0x7b, 0xe0, 0xa4, 0xbe, 0xad, 0xdb, 0x40, 0xbe, 
    0xfb, 0x6c, 0x2e, 0x3e, 0x60, 0x95, 0x1f, 0x3e, 0xc1, 0x42, 0x9f, 0x3e, 
    0x87, 0x9c, 0x5c, 0xbe, 0x68, 0x92, 0xf0, 0xbd, 0x95, 0x5d, 0x4d, 0xbf, 
    0x2a, 0xc3, 0x80, 0x3d, 0x0d, 0x22, 0xe6, 0x3e, 0xd6, 0x45, 0x85, 0xbe, 
    0x83, 0x49, 0xcd, 0x3e, 0xde, 0x25, 0xbb, 0xbe, 0xcc, 0xdb, 0xff, 0xbc, 
    0x9e, 0x6a, 0x4e, 0x3f, 0x4d, 0x56, 0x16, 0xbe, 0x54, 0x68, 0xeb, 0xbd, 
    0xae, 0xf2, 0x4f, 0xbe, 0x1a, 0xb8, 0x11, 0x3e, 0xc6, 0x53, 0x0c, 0xbf, 
    0x0a, 0x56, 0x44, 0xbf, 0xb4, 0xb4, 0x21, 0x3f, 0x18, 0xd5, 0x35, 0x3e, 
    0x19, 0xbe, 0x16, 0x3f, 0xab, 0x40, 0xba, 0x3e, 0x19, 0xbb, 0x07, 0x3f, 
    0x8a, 0x5b, 0xdc, 0x3e, 0x94, 0x8d, 0x74, 0xbe, 0x67, 0x47, 0x06, 0xbf, 
    0x25, 0x1a, 0xbe, 0x3d, 0x56, 0x35, 0x96, 0xbd, 0x52, 0xda, 0x0a, 0x3d, 
    0x94, 0x8d, 0x1a, 0x3f, 0xfc, 0xc5, 0x2e, 0xbf, 0x76, 0x9a, 0x95, 0x3e, 
    0x89, 0xdd, 0x9c, 0x3e, 0x73, 0x18, 0xc4, 0xbe, 0xaa, 0x62, 0xb5, 0xbe, 
    0x5e, 0x1e, 0x3a, 0xbd, 0x26, 0x1b, 0xaa, 0x3e, 0x87, 0xad, 0x10, 0x3e, 
    0xde, 0x4b, 0x1c, 0x3e, 0xe7, 0x34, 0x52, 0x3d, 0x44, 0x27, 0x39, 0x3f, 
    0x4c, 0xc9, 0x88, 0x3e, 0x55, 0xa1, 0xab, 0xbe, 0xde, 0x3c, 0x32, 0x3f, 
    0x04, 0xa5, 0x30, 0xbe, 0x85, 0x92, 0xea, 0xbe, 0x20, 0x04, 0xde, 0xbd, 
    0xc9, 0xba, 0xd3, 0xbe, 0x96, 0xd3, 0x7b, 0xbd, 0x11, 0x54, 0xa5, 0x3e, 
    0xb3, 0xd4, 0x16, 0xbe, 0xf4, 0x1f, 0xca, 0x3e, 0x24, 0x6f, 0xc8, 0x3e, 
    0xd0, 0xe4, 0x01, 0xbf, 0x58, 0x92, 0x08, 0x3f, 0xca, 0xfa, 0x91, 0xbe, 
    0xb2, 0x7b, 0x0f, 0x3e, 0xa4, 0xd9, 0x0b, 0x3f, 0x94, 0x4f, 0xf2, 0xbd, 
    0x6b, 0x2b, 0xd7, 0x3e, 0x78, 0x5c, 0x21, 0xbf, 0x73, 0xc5, 0xb1, 0xbc, 
    0x68, 0x84, 0x8e, 0xb9, 0x29, 0x41, 0xb4, 0x3e, 0x65, 0xf9, 0x71, 0x3e, 
    0x15, 0x06, 0x2a, 0x3f, 0x04, 0x43, 0x9b, 0xbe, 0x17, 0x40, 0x94, 0xbd, 
    0x65, 0x07, 0x0a, 0x3e, 0x06, 0xa0, 0x4e, 0xbe, 0xa3, 0x59, 0x6d, 0xbf, 
    0x48, 0xf3, 0x92, 0x3d, 0x96, 0x19, 0x33, 0xbf, 0x19, 0xb4, 0x51, 0x3f, 
    0xa4, 0xf4, 0x71, 0x3e, 0x7f, 0xbe, 0xca, 0xbe, 0xce, 0x2e, 0xce, 0x3e, 
    0x6c, 0xa6, 0x85, 0x3d, 0x7e, 0xe3, 0xcf, 0xbe, 0xc1, 0x76, 0xcf, 0xbd, 
    0xa0, 0xd0, 0x4b, 0xbd, 0x38, 0xaa, 0x15, 0x3e, 0x51, 0x3e, 0x21, 0x3f, 
    0x5b, 0x91, 0xec, 0xbd, 0x7c, 0x7f, 0x49, 0xbf, 0x53, 0xd6, 0xa0, 0x3e, 
    0x36, 0x0d, 0x11, 0x3f, 0xb9, 0xc3, 0x3c, 0xbf, 0xc8, 0xf5, 0x85, 0xbe, 
    0x99, 0x74, 0xb2, 0xbe, 0x76, 0xb9, 0x95, 0xbd, 0xf2, 0x80, 0x92, 0xbe, 
    0x44, 0xe3, 0x4f, 0x3f, 0xc7, 0x79, 0x18, 0xbf, 0x17, 0xb8, 0x8e, 0xbe, 
    0x20, 0x50, 0x76, 0xbe, 0x80, 0x20, 0x8f, 0x3e, 0x48, 0x8b, 0x6a, 0x3d, 
    0x73, 0x5e, 0xb9, 0x3e, 0xbc, 0xf9, 0x82, 0xbe, 0xe4, 0xdd, 0xdc, 0x3e, 
    0x37, 0x76, 0x07, 0xbf, 0xb7, 0xd7, 0x40, 0x3f, 0xf1, 0xac, 0x12, 0x3f, 
    0x8b, 0x64, 0xcb, 0xbc, 0x56, 0xaa, 0x47, 0x3f, 0x46, 0x58, 0xcc, 0x3e, 
    0xf3, 0xf0, 0x83, 0xbe, 0xea, 0xa0, 0x0f, 0xbf, 0xa3, 0xba, 0x8b, 0xbd, 
    0xb4, 0x15, 0x61, 0x3c, 0x80, 0x82, 0x5e, 0xbe, 0x89, 0xef, 0x19, 0x3e, 
    0xe8, 0x8c, 0xc8, 0x3d, 0x65, 0x19, 0xe1, 0x3e, 0xb5, 0xf7, 0xf7, 0x3e, 
    0x71, 0xb3, 0x10, 0x3e, 0xd6, 0x63, 0xa2, 0x3e, 0x74, 0xd4, 0xaf, 0x3e, 
    0xa3, 0xac, 0xfe, 0x3e, 0xee, 0xa3, 0x8a, 0xbe, 0x9f, 0xcc, 0xf2, 0xbe, 
    0x43, 0xeb, 0x12, 0xbe, 0x54, 0x8e, 0xc7, 0x3e, 0x41, 0x0c, 0x04, 0xbf, 
    0x27, 0x95, 0x4c, 0xbe, 0x45, 0xab, 0x56, 0xbe, 0x52, 0xec, 0xaf, 0xbe, 
    0x8e, 0x2a, 0x4a, 0x3e, 0xd8, 0x71, 0x35, 0x3f, 0x3a, 0xdb, 0x37, 0x3e, 
    0x52, 0x55, 0xb3, 0x3e, 0x24, 0x11, 0x7e, 0xbe, 0x45, 0x78, 0xe5, 0x3c, 
    0xc1, 0xb5, 0x37, 0xbe, 0x73, 0x0e, 0xa1, 0xbe, 0x8e, 0x6d, 0x35, 0xbf, 
    0x71, 0x06, 0xac, 0x3d, 0xfb, 0xb1, 0x81, 0xbe, 0x35, 0xba, 0x46, 0x3e, 
    0x08, 0xe9, 0xa0, 0x3e, 0xc6, 0xcb, 0x94, 0x3e, 0x50, 0x72, 0xbe, 0xbd, 
    0x81, 0xdc, 0xe2, 0xbe, 0xa9, 0x03, 0x5b, 0x3f, 0x46, 0x61, 0x91, 0xbd, 
    0x09, 0x03, 0x2c, 0xbf, 0xb0, 0xe1, 0x18, 0xbf, 0x44, 0x7d, 0x8a, 0x3e, 
    0x29, 0xec, 0xf8, 0x3e, 0x80, 0x7f, 0x14, 0x3f, 0x19, 0x4d, 0x18, 0x3e, 
    0xbb, 0xaf, 0x3f, 0x3f, 0x58, 0x7f, 0xc3, 0xbd, 0xbf, 0xa7, 0x43, 0x3f, 
    0xd4, 0x1d, 0x64, 0xbe, 0x69, 0x2d, 0x81, 0xbe, 0x54, 0xf9, 0x53, 0x3e, 
    0x17, 0x2c, 0xfd, 0xbd, 0xde, 0x91, 0x9d, 0xbe, 0xbf, 0x41, 0x3d, 0x3f, 
    0x0c, 0x87, 0x5a, 0x3e, 0x97, 0xc7, 0x22, 0x3e, 0xd7, 0x3b, 0x66, 0x3f, 
    0x62, 0xd0, 0x13, 0xbf, 0x47, 0xa4, 0x98, 0xbe, 0xb9, 0x32, 0x6d, 0x3e, 
    0x9d, 0x9f, 0x44, 0x3f, 0xf4, 0xe5, 0x6f, 0x3c, 0x86, 0xcf, 0x86, 0xbd, 
    0x5e, 0xc6, 0x1c, 0xbf, 0x9c, 0x6b, 0xe8, 0xbe, 0xd9, 0x10, 0xa5, 0xbd, 
    0xf2, 0x17, 0x32, 0x3f, 0xa6, 0x8b, 0x1a, 0xbd, 0x9e, 0x91, 0x95, 0x3e, 
    0x98, 0x99, 0xbb, 0x3e, 0xc8, 0xf7, 0x08, 0x3f, 0xa2, 0x9a, 0xaa, 0xbc, 
    0x0e, 0xe3, 0x21, 0x3f, 0x33, 0x26, 0xf7, 0x3e, 0x64, 0xf3, 0x04, 0xbf, 
    0x52, 0x76, 0xb4, 0x3d, 0x7d, 0xba, 0x7a, 0x3e, 0x63, 0x27, 0x2a, 0x3f, 
    0xf2, 0xc0, 0xf9, 0xbe, 0xc7, 0x6b, 0x22, 0xbd, 0x7c, 0x65, 0x46, 0xbe, 
    0x76, 0x72, 0xf3, 0x3e, 0x9e, 0x3c, 0x3c, 0xbf, 0x8e, 0x8e, 0x22, 0x3f, 
    0x74, 0x3f, 0x0a, 0xbf, 0x8b, 0x18, 0x0a, 0xbe, 0x96, 0x85, 0x32, 0xbe, 
    0xad, 0xb6, 0x2b, 0xbf, 0xd6, 0x95, 0x1e, 0xbf, 0xc8, 0xc4, 0xd7, 0xbe, 
    0x73, 0x7d, 0xa2, 0xbe, 0xec, 0x42, 0x8d, 0x3e, 0x2b, 0xa9, 0xc9, 0x3d, 
    0x5c, 0x30, 0x91, 0xbe, 0xa7, 0x11, 0xfc, 0x3d, 0x88, 0xd5, 0x09, 0xbf, 
    0xf0, 0xe3, 0x83, 0xbe, 0xea, 0xe1, 0xdb, 0xbe, 0x2f, 0x62, 0x48, 0x3e, 
    0x41, 0x57, 0x13, 0x3e, 0x4b, 0xe8, 0x2b, 0x3f, 0xc6, 0x90, 0x28, 0xbf, 
    0xe3, 0xfb, 0x5f, 0xbd, 0xe1, 0x42, 0x46, 0x3d, 0xbd, 0xf6, 0x58, 0xbe, 
    0xd8, 0x86, 0x8e, 0xbd, 0xd9, 0x65, 0xc1, 0x3c, 0xc1, 0x1c, 0xb9, 0x3d, 
    0x60, 0x0a, 0xa9, 0x3e, 0xb1, 0xcf, 0x20, 0x3f, 0x06, 0x85, 0x89, 0x3e, 
    0xfb, 0x16, 0x1f, 0xbe, 0xe5, 0x71, 0x35, 0xbe, 0x41, 0x8f, 0xb6, 0x3e, 
    0xa1, 0x6a, 0x21, 0x3e, 0x56, 0xe4, 0xa6, 0x3d, 0xa6, 0xf9, 0x01, 0xbf, 
    0x91, 0x51, 0xbe, 0xbe, 0x89, 0x67, 0xcb, 0xbe, 0xac, 0x69, 0x3a, 0xbd, 
    0x2d, 0xea, 0x76, 0x3e, 0xf9, 0xaa, 0xaf, 0x3e, 0xeb, 0x1d, 0x93, 0xbe, 
    0xdc, 0xb9, 0x47, 0x3e, 0x4e, 0x81, 0xf8, 0x3d, 0x87, 0x1c, 0xce, 0x3e, 
    0xa6, 0x01, 0x0b, 0xbf, 0x78, 0xc8, 0xb7, 0xbe, 0xc8, 0xbb, 0xc0, 0x3e, 
    0x69, 0x8f, 0x0d, 0x3f, 0x32, 0x5b, 0x06, 0x3d, 0x43, 0x53, 0x84, 0x3c, 
    0x0f, 0x16, 0x90, 0x3e, 0x13, 0xd5, 0x52, 0xbe, 0xb8, 0xa8, 0xad, 0x3e, 
    0xd9, 0x04, 0x8d, 0x3e, 0x70, 0x73, 0x06, 0xbf, 0x24, 0xb8, 0xb1, 0x3d, 
    0x08, 0xc5, 0x9e, 0xbe, 0x43, 0x70, 0xbb, 0x3e, 0xf2, 0x37, 0x90, 0x3d, 
    0x50, 0x7b, 0x7f, 0x3e, 0xa2, 0xff, 0x6f, 0x3e, 0x4b, 0xd0, 0xd7, 0xbe, 
    0x92, 0x25, 0xd0, 0xbc, 0xc1, 0x5a, 0xf0, 0x3e, 0x04, 0x44, 0x20, 0xbf, 
    0x6e, 0xc9, 0x34, 0xbe, 0x32, 0xf3, 0xfb, 0x3e, 0xf2, 0xba, 0xac, 0x3e, 
    0x35, 0x4b, 0x01, 0x3f, 0x16, 0x68, 0x2f, 0xbf, 0xc6, 0x25, 0x1f, 0xbe, 
    0x3a, 0x84, 0x60, 0x3e, 0x05, 0x61, 0xfb, 0x3d, 0x5f, 0xa0, 0xb4, 0xbe, 
    0x75, 0xbd, 0xbd, 0x3e, 0x9f, 0x78, 0x13, 0x3f, 0x60, 0x4f, 0x06, 0xbe, 
    0x5f, 0x9d, 0x89, 0xbe, 0xc3, 0xad, 0x80, 0xbe, 0xab, 0xc2, 0xa3, 0x3d, 
    0xc9, 0x8c, 0x00, 0x3d, 0xd1, 0x3a, 0xff, 0x3e, 0x41, 0x2e, 0x0a, 0xbf, 
    0x0e, 0x03, 0x07, 0x3d, 0xfe, 0x05, 0x91, 0xbe, 0xfd, 0x5f, 0xdc, 0x3e, 
    0xa3, 0xb3, 0x22, 0xbf, 0x53, 0xe8, 0x0f, 0xbe, 0xed, 0x0c, 0xae, 0x3c, 
    0x7c, 0x55, 0x82, 0x3e, 0x12, 0xa8, 0x7f, 0xbe, 0x36, 0x1b, 0xa0, 0xbe, 
    0x3d, 0x79, 0x43, 0xbf, 0x29, 0x03, 0xb1, 0x3d, 0x3b, 0x38, 0xa0, 0xbe, 
    0x56, 0xce, 0x00, 0xbe, 0x06, 0xbb, 0x0b, 0x3e, 0x23, 0xaf, 0xed, 0x3c, 
    0xbe, 0x11, 0x09, 0x3f, 0xa6, 0x4b, 0x69, 0x3e, 0xad, 0x44, 0x81, 0x3e, 
    0xbb, 0x28, 0x83, 0xbe, 0x4f, 0xef, 0x21, 0x3e, 0xc9, 0x77, 0xb7, 0x3e, 
    0x1b, 0x0a, 0xbe, 0x3e, 0x72, 0x69, 0xa1, 0x3e, 0xd5, 0x79, 0xd1, 0x3e, 
    0xbd, 0x81, 0x09, 0xbe, 0x9c, 0x88, 0x18, 0x3f, 0x39, 0x93, 0xe9, 0x3e, 
    0xbe, 0xd1, 0x66, 0x3f, 0x23, 0x06, 0x2e, 0x3f, 0x2a, 0xcd, 0x25, 0xbf, 
    0xf3, 0xab, 0x17, 0x3d, 0x76, 0x6c, 0x0d, 0xbe, 0xe2, 0x61, 0xf4, 0xbd, 
    0xbf, 0xe4, 0x79, 0xbd, 0x8b, 0xe6, 0xc3, 0xbe, 0x21, 0x44, 0x49, 0x3f, 
    0x8c, 0xd4, 0x93, 0xbd, 0x69, 0x29, 0x8b, 0x3e, 0xd6, 0xb1, 0x0d, 0xbe, 
    0xbf, 0xb8, 0xfb, 0x3e, 0x1a, 0xa8, 0x95, 0x3e, 0x9d, 0xa3, 0x85, 0xbe, 
    0xed, 0xd0, 0xe9, 0xbd, 0xe1, 0x09, 0x14, 0xbf, 0x48, 0xa0, 0x17, 0x3e, 
    0x32, 0x12, 0xca, 0xbd, 0x9b, 0x4f, 0x37, 0x3d, 0x88, 0xff, 0x34, 0x3f, 
    0xa3, 0x3b, 0x96, 0x3d, 0xbe, 0xd2, 0x91, 0xbc, 0xc2, 0x22, 0x4f, 0x3f, 
    0xd1, 0xdf, 0x40, 0x3f, 0xe1, 0x1f, 0x56, 0x3f, 0x7c, 0x82, 0x5b, 0xbe, 
    0xcd, 0x30, 0xd6, 0xbd, 0xe6, 0xcf, 0xd2, 0xbe, 0xc5, 0x3f, 0xfb, 0x3e, 
    0xa2, 0x4c, 0x0d, 0x3f, 0x70, 0x10, 0xf4, 0xbe, 0x0f, 0x00, 0x15, 0xbf, 
    0xcd, 0x56, 0x28, 0x3f, 0xfd, 0x28, 0x24, 0xbe, 0xf1, 0x40, 0xd3, 0x3e, 
    0x8b, 0x11, 0x13, 0xbf, 0xab, 0x61, 0x8d, 0x3e, 0x8a, 0x18, 0x13, 0x3f, 
    0xa5, 0xcb, 0xb1, 0xbe, 0xc7, 0x4a, 0x50, 0x3c, 0xc4, 0xa9, 0x0e, 0x3f, 
    0xb5, 0xab, 0x1b, 0x3f, 0x5e, 0x03, 0xf0, 0x3c, 0x8e, 0x4d, 0xc9, 0x3e, 
    0xf2, 0x0e, 0xdc, 0xbd, 0xa6, 0xac, 0xce, 0xbd, 0xbe, 0xe4, 0xcd, 0x3e, 
    0xca, 0x2a, 0xa4, 0x3d, 0x13, 0x27, 0x0c, 0x3f, 0xc6, 0xd4, 0xc5, 0xbe, 
    0x4d, 0xa3, 0xb0, 0xbe, 0xad, 0xca, 0xbe, 0x3e, 0xce, 0x13, 0x34, 0xbf, 
    0x09, 0x3d, 0x98, 0x3e, 0x05, 0xbc, 0xfd, 0xbe, 0x7e, 0x12, 0xf6, 0x3b, 
    0xd3, 0x39, 0x74, 0x3e, 0xec, 0x41, 0x90, 0x3e, 0x0d, 0xba, 0xe4, 0x3d, 
    0xc8, 0x3a, 0x26, 0x3d, 0x54, 0x4c, 0x2c, 0xbf, 0xa1, 0x10, 0x99, 0xbe, 
    0x30, 0xff, 0xe4, 0x3e, 0xd5, 0xd6, 0x23, 0xbe, 0xfb, 0x9c, 0x87, 0xbc, 
    0xcb, 0xa2, 0x06, 0x3c, 0x18, 0x93, 0x55, 0xbe, 0xd7, 0xac, 0x3e, 0xbe, 
    0x53, 0x23, 0x3a, 0x3f, 0x40, 0xe1, 0x5b, 0x3e, 0xf4, 0xa5, 0xc2, 0x3e, 
    0x25, 0x21, 0x48, 0xbf, 0xe5, 0xbe, 0x50, 0xbd, 0xd7, 0x90, 0xb3, 0x3d, 
    0xca, 0xe2, 0x9e, 0x3a, 0x56, 0x6d, 0x08, 0x3f, 0x17, 0xd4, 0x1f, 0xbe, 
    0x53, 0xe5, 0x0d, 0x3f, 0xb4, 0xb8, 0x76, 0xbe, 0x06, 0x93, 0x03, 0xbe, 
    0x02, 0x31, 0xfd, 0xbe, 0x8c, 0x9f, 0xaf, 0xbd, 0x32, 0xf2, 0x06, 0xbf, 
    0xe8, 0xc5, 0xcf, 0x3e, 0x9e, 0xd5, 0x2a, 0xbe, 0xd2, 0xc4, 0x17, 0x3e, 
    0xde, 0xd7, 0x95, 0xbe, 0x66, 0xbf, 0xf6, 0x3e, 0x94, 0x45, 0x09, 0x3f, 
    0x47, 0x09, 0xcc, 0x3e, 0x33, 0xdd, 0x1a, 0xbf, 0x9e, 0xf8, 0xa0, 0x3d, 
    0x72, 0x21, 0x57, 0xbe, 0xb0, 0x2b, 0xdb, 0xbe, 0x02, 0xce, 0x16, 0x3f, 
    0x93, 0x92, 0x8d, 0x3e, 0x62, 0x3f, 0xc5, 0x3e, 0xf5, 0x8b, 0x11, 0xbd, 
    0xce, 0x3b, 0x32, 0xbf, 0xaa, 0x25, 0x52, 0x3f, 0x98, 0x58, 0xbf, 0x3e, 
    0xcc, 0x02, 0xcb, 0xbe, 0x66, 0xa5, 0x37, 0x3f, 0x6f, 0x4f, 0x3a, 0x3f, 
    0xf2, 0xb1, 0xdc, 0x3e, 0x0b, 0x3e, 0xdb, 0xbd, 0xdf, 0xda, 0xcc, 0xbd, 
    0x31, 0x3f, 0x88, 0x3d, 0x88, 0xdf, 0x94, 0xbb, 0x87, 0x1f, 0x97, 0xbe, 
    0x9a, 0x8e, 0xfb, 0xbe, 0x6f, 0x2c, 0x97, 0xbe, 0x8e, 0x7e, 0x9e, 0xbe, 
    0xd0, 0x09, 0x52, 0xbd, 0xa0, 0xd1, 0x49, 0xbf, 0x36, 0x39, 0x1c, 0xbe, 
    0xdd, 0x2a, 0x8e, 0xbe, 0xac, 0x9b, 0x04, 0xbe, 0x9a, 0x18, 0x78, 0x3e, 
    0x70, 0x7f, 0xbe, 0x3e, 0xfd, 0x4a, 0xe7, 0x3e, 0x18, 0x76, 0x3d, 0xbf, 
    0x8d, 0xf6, 0x70, 0xbd, 0x6a, 0x6c, 0xa0, 0x3e, 0xde, 0x75, 0x53, 0xbf, 
    0xf0, 0x2a, 0xa1, 0x3e, 0x73, 0xa3, 0xf5, 0xbc, 0x08, 0x7d, 0xb0, 0xbe, 
    0x88, 0x6c, 0xd8, 0xbd, 0x24, 0x3d, 0x87, 0xbe, 0x05, 0xce, 0xfb, 0x3e, 
    0x8f, 0xd0, 0xfa, 0xbe, 0x8f, 0x4e, 0x20, 0x3f, 0x3a, 0xc8, 0x5c, 0xbd, 
    0x4c, 0xb5, 0xe1, 0xbe, 0x3f, 0xa4, 0xb1, 0xbe, 0x60, 0x95, 0xf4, 0xbc, 
    0xa2, 0x8d, 0x11, 0x3e, 0xfb, 0x3f, 0x1f, 0x3e, 0xd6, 0x38, 0x42, 0xbf, 
    0xe7, 0xf7, 0xfa, 0x3d, 0x2a, 0x17, 0xf6, 0xbe, 0xcf, 0x92, 0xe2, 0xbe, 
    0x19, 0x09, 0x9a, 0x3d, 0x04, 0xd5, 0x10, 0x3f, 0xfe, 0xc5, 0x04, 0x3f, 
    0x16, 0xbe, 0xae, 0x3e, 0x88, 0x47, 0x57, 0xbe, 0x66, 0xe9, 0x02, 0x3f, 
    0xb1, 0xfb, 0xf7, 0x3e, 0x25, 0x25, 0xe6, 0x3e, 0xb2, 0xc7, 0x0c, 0xbf, 
    0xf0, 0x9b, 0x03, 0x3e, 0x1a, 0x5d, 0xa9, 0xbe, 0x7b, 0x19, 0xa7, 0x3e, 
    0x36, 0xdd, 0xdf, 0x3d, 0x79, 0x67, 0x9a, 0xbe, 0x81, 0x22, 0xb5, 0x3e, 
    0x90, 0x9b, 0xd1, 0xbe, 0x65, 0x9c, 0x95, 0xbd, 0x33, 0x15, 0x80, 0xbe, 
    0x4c, 0xde, 0x02, 0xbf, 0x69, 0xf1, 0xca, 0xbe, 0x5a, 0x06, 0x61, 0xbf, 
    0x3b, 0x02, 0x45, 0x3b, 0x9f, 0xb9, 0x6d, 0xbe, 0xf3, 0x53, 0xb8, 0x3e, 
    0x92, 0xf7, 0x3f, 0x3f, 0x79, 0xa8, 0x28, 0xbe, 0x98, 0xf6, 0xea, 0x3e, 
    0xa7, 0x11, 0xe4, 0xbe, 0x16, 0x7e, 0x1c, 0x3e, 0x53, 0x40, 0xff, 0x3c, 
    0x20, 0x36, 0x3b, 0x3e, 0x3c, 0x5f, 0x0f, 0xbf, 0x64, 0xf1, 0x5a, 0xbf, 
    0xfa, 0x98, 0xe0, 0x3e, 0x27, 0xd1, 0xf4, 0xbe, 0x83, 0xc9, 0xee, 0xbe, 
    0x23, 0xd5, 0x4f, 0xbe, 0x9e, 0xb6, 0x16, 0xbf, 0x21, 0x3d, 0xec, 0x3d, 
    0x37, 0x41, 0x06, 0xbc, 0x5c, 0x70, 0xd8, 0x3e, 0xfa, 0x24, 0x22, 0x3f, 
    0x85, 0x11, 0x87, 0xbe, 0x7e, 0xa7, 0x17, 0x3d, 0x4d, 0x8b, 0x80, 0xbe, 
    0x1f, 0xf5, 0x12, 0xbf, 0xf7, 0x74, 0xc1, 0x3e, 0xe6, 0x77, 0x01, 0x3e, 
    0xd4, 0x69, 0x51, 0xbf, 0xc1, 0xbd, 0x31, 0xbf, 0x7c, 0xca, 0x0a, 0xbf, 
    0xc8, 0x22, 0xd7, 0x3e, 0xeb, 0xda, 0xcc, 0xbe, 0x25, 0x98, 0xb7, 0xbe, 
    0xa4, 0x20, 0xfd, 0x3e, 0xc2, 0x3a, 0xd8, 0xbd, 0xd5, 0x6a, 0xd2, 0x3e, 
    0x0f, 0xed, 0x8f, 0xbe, 0xe5, 0x8f, 0x1a, 0xbf, 0xa8, 0xf8, 0x0e, 0xbe, 
    0xe0, 0x88, 0x8f, 0x3e, 0xa4, 0x87, 0x61, 0x3f, 0x90, 0x1a, 0x88, 0x3c, 
    0x54, 0xd1, 0x49, 0xbf, 0x45, 0x85, 0x32, 0xbf, 0x5c, 0xc6, 0xc4, 0x3d, 
    0x31, 0x38, 0xd6, 0xbd, 0xbb, 0x1f, 0xf2, 0x3e, 0xfd, 0xe1, 0x05, 0xbe, 
    0xf8, 0x41, 0x88, 0xbe, 0x2f, 0x20, 0x3c, 0xbf, 0x2c, 0x9c, 0x45, 0xbe, 
    0xa3, 0x9a, 0x67, 0x3f, 0x85, 0x06, 0x04, 0x3e, 0x04, 0xff, 0x7f, 0x3e, 
    0xe5, 0xb9, 0x92, 0x3e, 0x83, 0x7f, 0x82, 0x3c, 0x58, 0x38, 0xe8, 0xbe, 
    0xa5, 0x9e, 0xde, 0xbc, 0x17, 0xd4, 0xd3, 0xbe, 0xeb, 0xa3, 0x23, 0x3f, 
    0x1e, 0x75, 0xab, 0xbe, 0x82, 0x83, 0xcd, 0xbd, 0xb4, 0x56, 0x9a, 0xbe, 
    0x58, 0xe0, 0x09, 0xbf, 0xca, 0x2a, 0x8c, 0x3e, 0xb8, 0xdb, 0xea, 0x3b, 
    0x83, 0x8a, 0xd5, 0xbe, 0x71, 0x19, 0xc0, 0x3e, 0xe3, 0xd5, 0x33, 0xbf, 
    0xf2, 0x44, 0x01, 0x3e, 0x6a, 0x1d, 0x03, 0x3f, 0x95, 0x08, 0x11, 0x3f, 
    0x53, 0x68, 0x1d, 0xbf, 0x9d, 0xdb, 0x1e, 0xbe, 0xe8, 0xb1, 0x1d, 0xbe, 
    0xbb, 0x21, 0x2e, 0x3e, 0x2e, 0x25, 0xbc, 0xbe, 0x32, 0x03, 0x6d, 0x3c, 
    0xdf, 0xd5, 0x32, 0x3e, 0xb0, 0xf9, 0x9e, 0x3d, 0xf4, 0xe1, 0x39, 0xbe, 
    0x46, 0x26, 0x80, 0x3e, 0x41, 0xa7, 0x6a, 0xbf, 0x1b, 0x1d, 0xad, 0x3e, 
    0xd5, 0xda, 0x31, 0xbe, 0x77, 0x02, 0x31, 0xbe, 0x5f, 0xc9, 0xa5, 0xbe, 
    0xaf, 0x20, 0x93, 0xbe, 0xc2, 0x57, 0xed, 0x3e, 0xba, 0x25, 0x95, 0xbe, 
    0x05, 0x76, 0xcc, 0xbe, 0xfb, 0x10, 0xa8, 0xbd, 0x9b, 0x71, 0xef, 0x3e, 
    0x7e, 0xf9, 0x8d, 0x3d, 0x72, 0x08, 0x1d, 0x3e, 0x4e, 0x7b, 0x12, 0x3f, 
    0xfe, 0x2f, 0x19, 0xbe, 0x70, 0xe8, 0x68, 0xbf, 0xe8, 0xb4, 0x9f, 0xbe, 
    0x10, 0xce, 0x25, 0xbf, 0xd8, 0xe8, 0xd8, 0x3e, 0x3a, 0xc4, 0xd6, 0x3e, 
    0x42, 0x90, 0xce, 0xbe, 0x2b, 0x74, 0x86, 0xbe, 0x47, 0x95, 0x00, 0xbf, 
    0xb4, 0xc7, 0xfe, 0xbe, 0x19, 0xba, 0x47, 0x3f, 0xb5, 0x11, 0xd0, 0x3e, 
    0x9d, 0x8b, 0x55, 0xbf, 0x56, 0xef, 0x3f, 0xbc, 0x69, 0x35, 0xb1, 0xbe, 
    0x0d, 0x84, 0x01, 0x3e, 0x4d, 0xf5, 0x12, 0x3f, 0x58, 0xfc, 0x9c, 0x3d, 
    0xbf, 0x4e, 0xdd, 0x3e, 0xdf, 0x15, 0x5a, 0xbe, 0xe8, 0x4b, 0xb9, 0xbe, 
    0x5a, 0xfc, 0x3f, 0xbe, 0xbd, 0xee, 0x45, 0xbd, 0xe9, 0x5d, 0x82, 0xbd, 
    0xa5, 0x8a, 0x37, 0xbf, 0xc7, 0x49, 0x0d, 0xbe, 0x65, 0x50, 0xc2, 0x3e, 
    0x30, 0x53, 0x86, 0xbe, 0x56, 0x33, 0xdb, 0xbd, 0xc1, 0xb8, 0x25, 0x3f, 
    0x28, 0xb5, 0x03, 0xbf, 0x00, 0x85, 0xc5, 0x3e, 0x8d, 0xb4, 0x14, 0xbf, 
    0x13, 0xe8, 0xbf, 0xbe, 0x93, 0xce, 0x79, 0x3e, 0xa7, 0x60, 0x11, 0x3a, 
    0x93, 0xfc, 0x3e, 0x3e, 0x73, 0x40, 0x00, 0x3f, 0x36, 0x79, 0xe9, 0x3e, 
    0xc3, 0x13, 0x45, 0xbe, 0xf0, 0x70, 0xf1, 0x3e, 0x92, 0x91, 0x50, 0xbe, 
    0x0e, 0x79, 0xd4, 0xbe, 0x00, 0x83, 0xe7, 0xbe, 0x77, 0x34, 0xea, 0x3d, 
    0xda, 0xcd, 0x60, 0x39, 0xd2, 0xf7, 0x9e, 0x3e, 0x8d, 0x5a, 0x16, 0xbd, 
    0xe6, 0x6b, 0x7c, 0xbe, 0x90, 0x27, 0x0a, 0x3f, 0x75, 0x29, 0x3a, 0xbf, 
    0x5b, 0x2d, 0x8b, 0xbe, 0x8e, 0xf2, 0x92, 0xbe, 0xcf, 0x5f, 0x90, 0xbe, 
    0xf0, 0xf5, 0xcd, 0x3e, 0x05, 0xe8, 0x23, 0xbb, 0xd1, 0x41, 0xc6, 0xbe, 
    0xdb, 0xac, 0xcc, 0xbd, 0xc2, 0x9e, 0x63, 0x3f, 0xd8, 0x54, 0x46, 0x3c, 
    0x40, 0x3c, 0x0f, 0x3e, 0xef, 0x82, 0x47, 0x3d, 0x2b, 0x03, 0x82, 0xbc, 
    0x5e, 0x73, 0x00, 0xbf, 0xff, 0x46, 0xd5, 0x3e, 0x1e, 0x07, 0xa8, 0xbc, 
    0x63, 0xc3, 0xe3, 0xbe, 0x98, 0x8d, 0x66, 0xbe, 0xe6, 0x27, 0x70, 0xbe, 
    0xcc, 0x45, 0x3e, 0xbe, 0x5f, 0x30, 0x27, 0x3f, 0x1e, 0x38, 0xfc, 0xbe, 
    0x59, 0x23, 0x21, 0x3d, 0x8d, 0x71, 0x4f, 0xbd, 0x0c, 0x8e, 0x35, 0xbc, 
    0x7c, 0xbc, 0x61, 0x3e, 0x79, 0xb4, 0xbe, 0x3e, 0xde, 0x4d, 0xc0, 0x3e, 
    0x89, 0xc2, 0xe1, 0xbc, 0xf3, 0xb8, 0xbd, 0xbe, 0xb0, 0x69, 0xf9, 0x3e, 
    0x9a, 0x68, 0xc5, 0xbe, 0xb9, 0x56, 0x86, 0xbe, 0x4e, 0x6f, 0x0a, 0xbf, 
    0x43, 0xf6, 0x58, 0x3e, 0x04, 0x8d, 0x22, 0x3f, 0xb1, 0xcb, 0x86, 0xbe, 
    0x61, 0x8f, 0xae, 0x3d, 0xbd, 0xfe, 0x0a, 0x3e, 0xfe, 0xce, 0x3a, 0x3d, 
    0x50, 0xe6, 0x7b, 0x3e, 0xe5, 0x4e, 0x41, 0xbf, 0x3d, 0x1f, 0xba, 0x3e, 
    0x9a, 0xf5, 0x17, 0xbe, 0xe9, 0x3f, 0xc6, 0xbe, 0xa4, 0x3f, 0x30, 0xbe, 
    0xc6, 0x02, 0x3c, 0xbf, 0xe6, 0x8e, 0x3c, 0xbe, 0x39, 0x9a, 0xf1, 0xbe, 
    0x66, 0x77, 0x41, 0xbf, 0x7d, 0xc5, 0x8b, 0x3e, 0x9e, 0xa1, 0xaf, 0x3e, 
    0x98, 0x4e, 0x20, 0x3f, 0xef, 0x6b, 0x30, 0xbe, 0x85, 0xec, 0xbd, 0x3e, 
    0xd2, 0xe9, 0xd4, 0xbe, 0x70, 0x44, 0x1c, 0xbf, 0x34, 0x49, 0x20, 0xbf, 
    0x40, 0x06, 0x50, 0xbb, 0x72, 0x31, 0x47, 0x3f, 0x56, 0x60, 0x95, 0x3b, 
    0x78, 0x18, 0x18, 0xbe, 0x70, 0x46, 0xbf, 0xbe, 0x1e, 0xa2, 0xbc, 0x3e, 
    0x72, 0x52, 0x1a, 0xbd, 0xd0, 0x29, 0x89, 0xbe, 0x2c, 0x74, 0xb2, 0x3e, 
    0x33, 0x09, 0xdd, 0xbe, 0x61, 0x0e, 0x85, 0xbe, 0xed, 0x35, 0x78, 0xbe, 
    0x76, 0xbd, 0x36, 0xbf, 0xaa, 0xe9, 0x26, 0x3f, 0x00, 0xc2, 0x3f, 0xbd, 
    0xc2, 0xad, 0xdf, 0xbe, 0xc5, 0x9f, 0x1e, 0x3e, 0x88, 0xc7, 0x22, 0x3f, 
    0xdc, 0xc8, 0xd5, 0xbe, 0xf7, 0x25, 0x9f, 0xbd, 0x5b, 0x3d, 0xa6, 0xbd, 
    0x5f, 0x98, 0x3f, 0x3f, 0xa5, 0xc8, 0xa2, 0xbe, 0x26, 0x3a, 0xd8, 0x3e, 
    0xde, 0xdc, 0xb9, 0xbe, 0x84, 0xe7, 0xe7, 0x3e, 0x07, 0x4a, 0x97, 0x3d, 
    0x5a, 0x4a, 0x0a, 0xbf, 0x7b, 0x9f, 0xd7, 0x3d, 0x1a, 0x9f, 0x40, 0xbd, 
    0x92, 0x49, 0x1e, 0xbe, 0x14, 0x71, 0x1a, 0x3e, 0x21, 0xd2, 0xe8, 0x3e, 
    0x15, 0x1a, 0x2c, 0x3f, 0x7e, 0x3a, 0x88, 0xbe, 0x9b, 0x1f, 0xb5, 0x3e, 
    0x53, 0xf0, 0xbd, 0xbe, 0x67, 0xc5, 0x07, 0xbf, 0x6e, 0xc6, 0xfd, 0xbe, 
    0x6e, 0x0d, 0xb1, 0x3d, 0xfa, 0x6a, 0x26, 0xbf, 0x69, 0x35, 0xbb, 0x3d, 
    0x41, 0xf9, 0x4b, 0x3f, 0x80, 0xa9, 0x44, 0xbe, 0x88, 0x8e, 0xae, 0xbe, 
    0x59, 0x53, 0x7d, 0x3e, 0xb7, 0x39, 0x0c, 0xbf, 0x1d, 0xb6, 0x14, 0x3f, 
    0x24, 0x61, 0x19, 0xbe, 0x83, 0x8a, 0x56, 0xbf, 0xbe, 0xda, 0xcb, 0xbe, 
    0x01, 0x5c, 0x53, 0x3e, 0x85, 0xa9, 0x12, 0xbf, 0x95, 0x47, 0x19, 0x3f, 
    0x86, 0x50, 0xf3, 0xbe, 0x3e, 0x0f, 0x68, 0xbf, 0xb3, 0x80, 0x25, 0x3d, 
    0xd0, 0x90, 0x8c, 0x3d, 0x82, 0x7b, 0x12, 0xbe, 0xfe, 0xa2, 0xdc, 0xbe, 
    0xe1, 0x0b, 0xa9, 0x3e, 0x3d, 0x6b, 0x62, 0xbe, 0xc5, 0x4b, 0x30, 0xbe, 
    0x90, 0x42, 0xa5, 0xbe, 0x84, 0x68, 0xcb, 0x3e, 0xc2, 0x98, 0x96, 0xbd, 
    0x1f, 0x90, 0x82, 0x3e, 0x49, 0x49, 0x1d, 0x3d, 0x5a, 0x9f, 0xb3, 0xbe, 
    0x56, 0xdc, 0x83, 0xbb, 0x1b, 0xb4, 0xc1, 0xbe, 0xe5, 0x8d, 0x98, 0x3d, 
    0xd7, 0xd5, 0xc9, 0x3e, 0x31, 0x85, 0xad, 0x3e, 0xc2, 0xcb, 0xd3, 0xbc, 
    0x35, 0x73, 0x27, 0x3c, 0x1c, 0xd0, 0xee, 0x3e, 0xe2, 0x6f, 0xd7, 0x3e, 
    0xb2, 0xd6, 0x00, 0xbf, 0xe1, 0x64, 0x27, 0xbe, 0x28, 0xf7, 0xff, 0xff, 
    0x2c, 0xf7, 0xff, 0xff, 0x0f, 0x00, 0x00, 0x00, 0x4d, 0x4c, 0x49, 0x52, 
    0x20, 0x43, 0x6f, 0x6e, 0x76, 0x65, 0x72, 0x74, 0x65, 0x64, 0x2e, 0x00, 
    0x01, 0x00, 0x00, 0x00, 0x14, 0x00, 0x00, 0x00, 0x00, 0x00, 0x0e, 0x00, 
    0x18, 0x00, 0x14, 0x00, 0x10, 0x00, 0x0c, 0x00, 0x08, 0x00, 0x04, 0x00, 
    0x0e, 0x00, 0x00, 0x00, 0x14, 0x00, 0x00, 0x00, 0x1c, 0x00, 0x00, 0x00, 
    0x90, 0x02, 0x00, 0x00, 0x94, 0x02, 0x00, 0x00, 0x98, 0x02, 0x00, 0x00, 
    0x04, 0x00, 0x00, 0x00, 0x6d, 0x61, 0x69, 0x6e, 0x00, 0x00, 0x00, 0x00, 
    0x0c, 0x00, 0x00, 0x00, 0x44, 0x02, 0x00, 0x00, 0x10, 0x02, 0x00, 0x00, 
    0xd0, 0x01, 0x00, 0x00, 0x98, 0x01, 0x00, 0x00, 0x60, 0x01, 0x00, 0x00, 
    0x2c, 0x01, 0x00, 0x00, 0x08, 0x01, 0x00, 0x00, 0xd4, 0x00, 0x00, 0x00, 
    0xac, 0x00, 0x00, 0x00, 0x74, 0x00, 0x00, 0x00, 0x40, 0x00, 0x00, 0x00, 
    0x04, 0x00, 0x00, 0x00, 0x66, 0xfe, 0xff, 0xff, 0x1c, 0x00, 0x00, 0x00, 
    0x00, 0x00, 0x00, 0x09, 0x1c, 0x00, 0x00, 0x00, 0x20, 0x00, 0x00, 0x00, 
    0x05, 0x00, 0x00, 0x00, 0x00, 0x00, 0x06, 0x00, 0x08, 0x00, 0x04, 0x00, 
    0x06, 0x00, 0x00, 0x00, 0x00, 0x00, 0x80, 0x3f, 0x01, 0x00, 0x00, 0x00, 
    0x11, 0x00, 0x00, 0x00, 0x01, 0x00, 0x00, 0x00, 0x10, 0x00, 0x00, 0x00, 
    0x32, 0xfe, 0xff, 0xff, 0x10, 0x00, 0x00, 0x00, 0x00, 0x00, 0x00, 0x08, 
    0x0c, 0x00, 0x00, 0x00, 0x10, 0x00, 0x00, 0x00, 0x00, 0xf8, 0xff, 0xff, 
    0x01, 0x00, 0x00, 0x00, 0x10, 0x00, 0x00, 0x00, 0x03, 0x00, 0x00, 0x00, 
    0x0f, 0x00, 0x00, 0x00, 0x03, 0x00, 0x00, 0x00, 0xff, 0xff, 0xff, 0xff, 
    0xce, 0xfe, 0xff, 0xff, 0x14, 0x00, 0x00, 0x00, 0x00, 0x00, 0x00, 0x2f, 
    0x10, 0x00, 0x00, 0x00, 0x14, 0x00, 0x00, 0x00, 0x04, 0x00, 0x00, 0x00, 
    0x34, 0xf8, 0xff, 0xff, 0x01, 0x00, 0x00, 0x00, 0x0f, 0x00, 0x00, 0x00, 
    0x03, 0x00, 0x00, 0x00, 0x0e, 0x00, 0x00, 0x00, 0x0c, 0x00, 0x00, 0x00, 
    0x0d, 0x00, 0x00, 0x00, 0xc2, 0xfe, 0xff, 0xff, 0x0c, 0x00, 0x00, 0x00, 
    0x10, 0x00, 0x00, 0x00, 0x03, 0x00, 0x00, 0x00, 0x01, 0x00, 0x00, 0x00, 
    0x0e, 0x00, 0x00, 0x00, 0x02, 0x00, 0x00, 0x00, 0x0b, 0x00, 0x00, 0x00, 
    0x04, 0x00, 0x00, 0x00, 0x26, 0xff, 0xff, 0xff, 0x14, 0x00, 0x00, 0x00, 
    0x00, 0x00, 0x00, 0x15, 0x10, 0x00, 0x00, 0x00, 0x14, 0x00, 0x00, 0x00, 
    0x02, 0x00, 0x00, 0x00, 0x8c, 0xf8, 0xff, 0xff, 0x01, 0x00, 0x00, 0x00, 
    0x0d, 0x00, 0x00, 0x00, 0x02, 0x00, 0x00, 0x00, 0x0c, 0x00, 0x00, 0x00, 
    0x05, 0x00, 0x00, 0x00, 0x16, 0xff, 0xff, 0xff, 0x0c, 0x00, 0x00, 0x00, 
    0x10, 0x00, 0x00, 0x00, 0x01, 0x00, 0x00, 0x00, 0x01, 0x00, 0x00, 0x00, 
    0x0c, 0x00, 0x00, 0x00, 0x01, 0x00, 0x00, 0x00, 0x0b, 0x00, 0x00, 0x00, 
    0x0a, 0xff, 0xff, 0xff, 0x10, 0x00, 0x00, 0x00, 0x00, 0x00, 0x00, 0x08, 
    0x0c, 0x00, 0x00, 0x00, 0x10, 0x00, 0x00, 0x00, 0xd8, 0xf8, 0xff, 0xff, 
    0x01, 0x00, 0x00, 0x00, 0x0b, 0x00, 0x00, 0x00, 0x03, 0x00, 0x00, 0x00, 
    0x0a, 0x00, 0x00, 0x00, 0x02, 0x00, 0x00, 0x00, 0xff, 0xff, 0xff, 0xff, 
    0xa6, 0xff, 0xff, 0xff, 0x14, 0x00, 0x00, 0x00, 0x00, 0x00, 0x00, 0x2f, 
    0x10, 0x00, 0x00, 0x00, 0x14, 0x00, 0x00, 0x00, 0x04, 0x00, 0x00, 0x00, 
    0x0c, 0xf9, 0xff, 0xff, 0x01, 0x00, 0x00, 0x00, 0x0a, 0x00, 0x00, 0x00, 
    0x03, 0x00, 0x00, 0x00, 0x09, 0x00, 0x00, 0x00, 0x07, 0x00, 0x00, 0x00, 
    0x08, 0x00, 0x00, 0x00, 0x9a, 0xff, 0xff, 0xff, 0x0c, 0x00, 0x00, 0x00, 
    0x10, 0x00, 0x00, 0x00, 0x03, 0x00, 0x00, 0x00, 0x01, 0x00, 0x00, 0x00, 
    0x09, 0x00, 0x00, 0x00, 0x02, 0x00, 0x00, 0x00, 0x06, 0x00, 0x00, 0x00, 
    0x04, 0x00, 0x00, 0x00, 0x00, 0x00, 0x0e, 0x00, 0x18, 0x00, 0x14, 0x00, 
    0x10, 0x00, 0x0c, 0x00, 0x0b, 0x00, 0x04, 0x00, 0x0e, 0x00, 0x00, 0x00, 
    0x14, 0x00, 0x00, 0x00, 0x00, 0x00, 0x00, 0x15, 0x10, 0x00, 0x00, 0x00, 
    0x14, 0x00, 0x00, 0x00, 0x02, 0x00, 0x00, 0x00, 0x74, 0xf9, 0xff, 0xff, 
    0x01, 0x00, 0x00, 0x00, 0x08, 0x00, 0x00, 0x00, 0x02, 0x00, 0x00, 0x00, 
    0x07, 0x00, 0x00, 0x00, 0x05, 0x00, 0x00, 0x00, 0x00, 0x00, 0x0a, 0x00, 
    0x10, 0x00, 0x0c, 0x00, 0x08, 0x00, 0x04, 0x00, 0x0a, 0x00, 0x00, 0x00, 
    0x0c, 0x00, 0x00, 0x00, 0x10, 0x00, 0x00, 0x00, 0x01, 0x00, 0x00, 0x00, 
    0x01, 0x00, 0x00, 0x00, 0x07, 0x00, 0x00, 0x00, 0x01, 0x00, 0x00, 0x00, 
    0x06, 0x00, 0x00, 0x00, 0x00, 0x00, 0x0e, 0x00, 0x14, 0x00, 0x00, 0x00, 
    0x10, 0x00, 0x0c, 0x00, 0x0b, 0x00, 0x04, 0x00, 0x0e, 0x00, 0x00, 0x00, 
    0x10, 0x00, 0x00, 0x00, 0x00, 0x00, 0x00, 0x08, 0x0c, 0x00, 0x00, 0x00, 
    0x10, 0x00, 0x00, 0x00, 0xdc, 0xf9, 0xff, 0xff, 0x01, 0x00, 0x00, 0x00, 
    0x06, 0x00, 0x00, 0x00, 0x03, 0x00, 0x00, 0x00, 0x00, 0x00, 0x00, 0x00, 
    0x01, 0x00, 0x00, 0x00, 0xff, 0xff, 0xff, 0xff, 0x01, 0x00, 0x00, 0x00, 
    0x11, 0x00, 0x00, 0x00, 0x01, 0x00, 0x00, 0x00, 0x00, 0x00, 0x00, 0x00, 
    0x12, 0x00, 0x00, 0x00, 0xdc, 0x05, 0x00, 0x00, 0x5c, 0x05, 0x00, 0x00, 
    0xf4, 0x04, 0x00, 0x00, 0x84, 0x04, 0x00, 0x00, 0x40, 0x04, 0x00, 0x00, 
    0x00, 0x04, 0x00, 0x00, 0x98, 0x03, 0x00, 0x00, 0x50, 0x03, 0x00, 0x00, 
    0x08, 0x03, 0x00, 0x00, 0xb8, 0x02, 0x00, 0x00, 0x54, 0x02, 0x00, 0x00, 
    0xec, 0x01, 0x00, 0x00, 0xa4, 0x01, 0x00, 0x00, 0x5c, 0x01, 0x00, 0x00, 
    0x0c, 0x01, 0x00, 0x00, 0xc0, 0x00, 0x00, 0x00, 0x50, 0x00, 0x00, 0x00, 
    0x04, 0x00, 0x00, 0x00, 0x82, 0xfa, 0xff, 0xff, 0x00, 0x00, 0x00, 0x01, 
    0x10, 0x00, 0x00, 0x00, 0x10, 0x00, 0x00, 0x00, 0x12, 0x00, 0x00, 0x00, 
    0x28, 0x00, 0x00, 0x00, 0x6c, 0xfa, 0xff, 0xff, 0x19, 0x00, 0x00, 0x00, 
    0x53, 0x74, 0x61, 0x74, 0x65, 0x66, 0x75, 0x6c, 0x50, 0x61, 0x72, 0x74, 
    0x69, 0x74, 0x69, 0x6f, 0x6e, 0x65, 0x64, 0x43, 0x61, 0x6c, 0x6c, 0x3a, 
    0x30, 0x00, 0x00, 0x00, 0x02, 0x00, 0x00, 0x00, 0x37, 0x00, 0x00, 0x00, 
    0x02, 0x00, 0x00, 0x00, 0xca, 0xfa, 0xff, 0xff, 0x00, 0x00, 0x00, 0x01, 
    0x10, 0x00, 0x00, 0x00, 0x10, 0x00, 0x00, 0x00, 0x11, 0x00, 0x00, 0x00, 
    0x4c, 0x00, 0x00, 0x00, 0xb4, 0xfa, 0xff, 0xff, 0x3e, 0x00, 0x00, 0x00, 
    0x6d, 0x6f, 0x64, 0x65, 0x6c, 0x2f, 0x62, 0x61, 0x74, 0x63, 0x68, 0x6e, 
    0x6f, 0x72, 0x6d, 0x5f, 0x33, 0x2f, 0x62, 0x61, 0x74, 0x63, 0x68, 0x6e, 
    0x6f, 0x72, 0x6d, 0x2f, 0x6d, 0x75, 0x6c, 0x5f, 0x31, 0x3b, 0x6d, 0x6f, 
    0x64, 0x65, 0x6c, 0x2f, 0x73, 0x6f, 0x66, 0x74, 0x6d, 0x61, 0x78, 0x5f, 
    0x6f, 0x75, 0x74, 0x70, 0x75, 0x74, 0x2f, 0x4d, 0x61, 0x74, 0x4d, 0x75, 
    0x6c, 0x31, 0x00, 0x00, 0x02, 0x00, 0x00, 0x00, 0x37, 0x00, 0x00, 0x00, 
    0x02, 0x00, 0x00, 0x00, 0x36, 0xfb, 0xff, 0xff, 0x00, 0x00, 0x00, 0x01, 
    0x10, 0x00, 0x00, 0x00, 0x10, 0x00, 0x00, 0x00, 0x10, 0x00, 0x00, 0x00, 
    0x28, 0x00, 0x00, 0x00, 0x20, 0xfb, 0xff, 0xff, 0x1a, 0x00, 0x00, 0x00, 
    0x6d, 0x6f, 0x64, 0x65, 0x6c, 0x2f, 0x64, 0x65, 0x6e, 0x73, 0x65, 0x5f, 
    0x32, 0x2f, 0x65, 0x6c, 0x75, 0x2f, 0x53, 0x65, 0x6c, 0x65, 0x63, 0x74, 
    0x56, 0x32, 0x00, 0x00, 0x02, 0x00, 0x00, 0x00, 0x37, 0x00, 0x00, 0x00, 
    0x20, 0x00, 0x00, 0x00, 0x7e, 0xfe, 0xff, 0xff, 0x00, 0x00, 0x00, 0x01, 
    0x14, 0x00, 0x00, 0x00, 0x14, 0x00, 0x00, 0x00, 0x0f, 0x00, 0x00, 0x00, 
    0x00, 0x00, 0x00, 0x06, 0x28, 0x00, 0x00, 0x00, 0x6c, 0xfb, 0xff, 0xff, 
    0x19, 0x00, 0x00, 0x00, 0x6d, 0x6f, 0x64, 0x65, 0x6c, 0x2f, 0x64, 0x65, 
    0x6e, 0x73, 0x65, 0x5f, 0x32, 0x2f, 0x65, 0x6c, 0x75, 0x2f, 0x47, 0x72, 
    0x65, 0x61, 0x74, 0x65, 0x72, 0x00, 0x00, 0x00, 0x02, 0x00, 0x00, 0x00, 
    0x37, 0x00, 0x00, 0x00, 0x20, 0x00, 0x00, 0x00, 0xca, 0xfb, 0xff, 0xff, 
    0x00, 0x00, 0x00, 0x01, 0x10, 0x00, 0x00, 0x00, 0x10, 0x00, 0x00, 0x00, 
    0x0e, 0x00, 0x00, 0x00, 0x24, 0x00, 0x00, 0x00, 0xb4, 0xfb, 0xff, 0xff, 
    0x15, 0x00, 0x00, 0x00, 0x6d, 0x6f, 0x64, 0x65, 0x6c, 0x2f, 0x64, 0x65, 
    0x6e, 0x73, 0x65, 0x5f, 0x32, 0x2f, 0x65, 0x6c, 0x75, 0x2f, 0x6d, 0x75, 
    0x6c, 0x00, 0x00, 0x00, 0x02, 0x00, 0x00, 0x00, 0x37, 0x00, 0x00, 0x00, 
    0x20, 0x00, 0x00, 0x00, 0x0e, 0xfc, 0xff, 0xff, 0x00, 0x00, 0x00, 0x01, 
    0x10, 0x00, 0x00, 0x00, 0x10, 0x00, 0x00, 0x00, 0x0d, 0x00, 0x00, 0x00, 
    0x24, 0x00, 0x00, 0x00, 0xf8, 0xfb, 0xff, 0xff, 0x15, 0x00, 0x00, 0x00, 
    0x6d, 0x6f, 0x64, 0x65, 0x6c, 0x2f, 0x64, 0x65, 0x6e, 0x73, 0x65, 0x5f, 
    0x32, 0x2f, 0x65, 0x6c, 0x75, 0x2f, 0x45, 0x6c, 0x75, 0x00, 0x00, 0x00, 
    0x02, 0x00, 0x00, 0x00, 0x37, 0x00, 0x00, 0x00, 0x20, 0x00, 0x00, 0x00, 
    0x52, 0xfc, 0xff, 0xff, 0x00, 0x00, 0x00, 0x01, 0x10, 0x00, 0x00, 0x00, 
    0x10, 0x00, 0x00, 0x00, 0x0c, 0x00, 0x00, 0x00, 0x44, 0x00, 0x00, 0x00, 
    0x3c, 0xfc, 0xff, 0xff, 0x37, 0x00, 0x00, 0x00, 0x6d, 0x6f, 0x64, 0x65, 
    0x6c, 0x2f, 0x62, 0x61, 0x74, 0x63, 0x68, 0x6e, 0x6f, 0x72, 0x6d, 0x5f, 
    0x32, 0x2f, 0x62, 0x61, 0x74, 0x63, 0x68, 0x6e, 0x6f, 0x72, 0x6d, 0x2f, 
    0x6d, 0x75, 0x6c, 0x5f, 0x31, 0x3b, 0x6d, 0x6f, 0x64, 0x65, 0x6c, 0x2f, 
    0x64, 0x65, 0x6e, 0x73, 0x65, 0x5f, 0x32, 0x2f, 0x4d, 0x61, 0x74, 0x4d, 
    0x75, 0x6c, 0x31, 0x00, 0x02, 0x00, 0x00, 0x00, 0x37, 0x00, 0x00, 0x00, 
    0x20, 0x00, 0x00, 0x00, 0xb6, 0xfc, 0xff, 0xff, 0x00, 0x00, 0x00, 0x01, 
    0x10, 0x00, 0x00, 0x00, 0x10, 0x00, 0x00, 0x00, 0x0b, 0x00, 0x00, 0x00, 
    0x28, 0x00, 0x00, 0x00, 0xa0, 0xfc, 0xff, 0xff, 0x1a, 0x00, 0x00, 0x00, 
    0x6d, 0x6f, 0x64, 0x65, 0x6c, 0x2f, 0x64, 0x65, 0x6e, 0x73, 0x65, 0x5f, 
    0x31, 0x2f, 0x65, 0x6c, 0x75, 0x2f, 0x53, 0x65, 0x6c, 0x65, 0x63, 0x74, 
    0x56, 0x32, 0x00, 0x00, 0x02, 0x00, 0x00, 0x00, 0x37, 0x00, 0x00, 0x00, 
    0x40, 0x00, 0x00, 0x00, 0x00, 0x00, 0x16, 0x00, 0x1c, 0x00, 0x18, 0x00, 
    0x17, 0x00, 0x10, 0x00, 0x0c, 0x00, 0x08, 0x00, 0x00, 0x00, 0x00, 0x00, 
    0x00, 0x00, 0x07, 0x00, 0x16, 0x00, 0x00, 0x00, 0x00, 0x00, 0x00, 0x01, 
    0x14, 0x00, 0x00, 0x00, 0x14, 0x00, 0x00, 0x00, 0x0a, 0x00, 0x00, 0x00, 
    0x00, 0x00, 0x00, 0x06, 0x28, 0x00, 0x00, 0x00, 0x04, 0xfd, 0xff, 0xff, 
    0x19, 0x00, 0x00, 0x00, 0x6d, 0x6f, 0x64, 0x65, 0x6c, 0x2f, 0x64, 0x65, 
    0x6e, 0x73, 0x65, 0x5f, 0x31, 0x2f, 0x65, 0x6c, 0x75, 0x2f, 0x47, 0x72, 
    0x65, 0x61, 0x74, 0x65, 0x72, 0x00, 0x00, 0x00, 0x02, 0x00, 0x00, 0x00, 
    0x37, 0x00, 0x00, 0x00, 0x40, 0x00, 0x00, 0x00, 0x62, 0xfd, 0xff, 0xff, 
    0x00, 0x00, 0x00, 0x01, 0x10, 0x00, 0x00, 0x00, 0x10, 0x00, 0x00, 0x00, 
    0x09, 0x00, 0x00, 0x00, 0x24, 0x00, 0x00, 0x00, 0x4c, 0xfd, 0xff, 0xff, 
    0x15, 0x00, 0x00, 0x00, 0x6d, 0x6f, 0x64, 0x65, 0x6c, 0x2f, 0x64, 0x65, 
    0x6e, 0x73, 0x65, 0x5f, 0x31, 0x2f, 0x65, 0x6c, 0x75, 0x2f, 0x6d, 0x75, 
    0x6c, 0x00, 0x00, 0x00, 0x02, 0x00, 0x00, 0x00, 0x37, 0x00, 0x00, 0x00, 
    0x40, 0x00, 0x00, 0x00, 0xa6, 0xfd, 0xff, 0xff, 0x00, 0x00, 0x00, 0x01, 
    0x10, 0x00, 0x00, 0x00, 0x10, 0x00, 0x00, 0x00, 0x08, 0x00, 0x00, 0x00, 
    0x24, 0x00, 0x00, 0x00, 0x90, 0xfd, 0xff, 0xff, 0x15, 0x00, 0x00, 0x00, 
    0x6d, 0x6f, 0x64, 0x65, 0x6c, 0x2f, 0x64, 0x65, 0x6e, 0x73, 0x65, 0x5f, 
    0x31, 0x2f, 0x65, 0x6c, 0x75, 0x2f, 0x45, 0x6c, 0x75, 0x00, 0x00, 0x00, 
    0x02, 0x00, 0x00, 0x00, 0x37, 0x00, 0x00, 0x00, 0x40, 0x00, 0x00, 0x00, 
    0xea, 0xfd, 0xff, 0xff, 0x00, 0x00, 0x00, 0x01, 0x10, 0x00, 0x00, 0x00, 
    0x10, 0x00, 0x00, 0x00, 0x07, 0x00, 0x00, 0x00, 0x44, 0x00, 0x00, 0x00, 
    0xd4, 0xfd, 0xff, 0xff, 0x37, 0x00, 0x00, 0x00, 0x6d, 0x6f, 0x64, 0x65, 
    0x6c, 0x2f, 0x62, 0x61, 0x74, 0x63, 0x68, 0x6e, 0x6f, 0x72, 0x6d, 0x5f, 
    0x31, 0x2f, 0x62, 0x61, 0x74, 0x63, 0x68, 0x6e, 0x6f, 0x72, 0x6d, 0x2f, 
    0x6d, 0x75, 0x6c, 0x5f, 0x31, 0x3b, 0x6d, 0x6f, 0x64, 0x65, 0x6c, 0x2f, 
    0x64, 0x65, 0x6e, 0x73, 0x65, 0x5f, 0x31, 0x2f, 0x4d, 0x61, 0x74, 0x4d, 
    0x75, 0x6c, 0x31, 0x00, 0x02, 0x00, 0x00, 0x00, 0x37, 0x00, 0x00, 0x00, 
    0x40, 0x00, 0x00, 0x00, 0x4e, 0xfe, 0xff, 0xff, 0x00, 0x00, 0x00, 0x01, 
    0x10, 0x00, 0x00, 0x00, 0x10, 0x00, 0x00, 0x00, 0x06, 0x00, 0x00, 0x00, 
    0x24, 0x00, 0x00, 0x00, 0x38, 0xfe, 0xff, 0xff, 0x17, 0x00, 0x00, 0x00, 
    0x6d, 0x6f, 0x64, 0x65, 0x6c, 0x2f, 0x64, 0x65, 0x6e, 0x73, 0x65, 0x5f, 
    0x31, 0x2f, 0x65, 0x6c, 0x75, 0x2f, 0x6d, 0x75, 0x6c, 0x2f, 0x78, 0x00, 
    0x00, 0x00, 0x00, 0x00, 0x8a, 0xfe, 0xff, 0xff, 0x00, 0x00, 0x00, 0x01, 
    0x10, 0x00, 0x00, 0x00, 0x10, 0x00, 0x00, 0x00, 0x05, 0x00, 0x00, 0x00, 
    0x28, 0x00, 0x00, 0x00, 0x74, 0xfe, 0xff, 0xff, 0x1b, 0x00, 0x00, 0x00, 
    0x6d, 0x6f, 0x64, 0x65, 0x6c, 0x2f, 0x64, 0x65, 0x6e, 0x73, 0x65, 0x5f, 
    0x31, 0x2f, 0x65, 0x6c, 0x75, 0x2f, 0x47, 0x72, 0x65, 0x61, 0x74, 0x65, 
    0x72, 0x2f, 0x79, 0x00, 0x00, 0x00, 0x00, 0x00, 0xca, 0xfe, 0xff, 0xff, 
    0x00, 0x00, 0x00, 0x01, 0x10, 0x00, 0x00, 0x00, 0x10, 0x00, 0x00, 0x00, 
    0x04, 0x00, 0x00, 0x00, 0x4c, 0x00, 0x00, 0x00, 0xb4, 0xfe, 0xff, 0xff, 
    0x3d, 0x00, 0x00, 0x00, 0x6d, 0x6f, 0x64, 0x65, 0x6c, 0x2f, 0x62, 0x61, 
    0x74, 0x63, 0x68, 0x6e, 0x6f, 0x72, 0x6d, 0x5f, 0x33, 0x2f, 0x62, 0x61, 
    0x74, 0x63, 0x68, 0x6e, 0x6f, 0x72, 0x6d, 0x2f, 0x6d, 0x75, 0x6c, 0x5f, 
    0x31, 0x3b, 0x6d, 0x6f, 0x64, 0x65, 0x6c, 0x2f, 0x73, 0x6f, 0x66, 0x74, 
    0x6d, 0x61, 0x78, 0x5f, 0x6f, 0x75, 0x74, 0x70, 0x75, 0x74, 0x2f, 0x4d, 
    0x61, 0x74, 0x4d, 0x75, 0x6c, 0x00, 0x00, 0x00, 0x02, 0x00, 0x00, 0x00, 
    0x02, 0x00, 0x00, 0x00, 0x20, 0x00, 0x00, 0x00, 0x36, 0xff, 0xff, 0xff, 
    0x00, 0x00, 0x00, 0x01, 0x10, 0x00, 0x00, 0x00, 0x10, 0x00, 0x00, 0x00, 
    0x03, 0x00, 0x00, 0x00, 0x44, 0x00, 0x00, 0x00, 0x20, 0xff, 0xff, 0xff, 
    0x36, 0x00, 0x00, 0x00, 0x6d, 0x6f, 0x64, 0x65, 0x6c, 0x2f, 0x62, 0x61, 
    0x74, 0x63, 0x68, 0x6e, 0x6f, 0x72, 0x6d, 0x5f, 0x32, 0x2f, 0x62, 0x61, 
    0x74, 0x63, 0x68, 0x6e, 0x6f, 0x72, 0x6d, 0x2f, 0x6d, 0x75, 0x6c, 0x5f, 
    0x31, 0x3b, 0x6d, 0x6f, 0x64, 0x65, 0x6c, 0x2f, 0x64, 0x65, 0x6e, 0x73, 
    0x65, 0x5f, 0x32, 0x2f, 0x4d, 0x61, 0x74, 0x4d, 0x75, 0x6c, 0x00, 0x00, 
    0x02, 0x00, 0x00, 0x00, 0x20, 0x00, 0x00, 0x00, 0x40, 0x00, 0x00, 0x00, 
    0x9a, 0xff, 0xff, 0xff, 0x00, 0x00, 0x00, 0x01, 0x10, 0x00, 0x00, 0x00, 
    0x10, 0x00, 0x00, 0x00, 0x02, 0x00, 0x00, 0x00, 0x44, 0x00, 0x00, 0x00, 
    0x84, 0xff, 0xff, 0xff, 0x36, 0x00, 0x00, 0x00, 0x6d, 0x6f, 0x64, 0x65, 
    0x6c, 0x2f, 0x62, 0x61, 0x74, 0x63, 0x68, 0x6e, 0x6f, 0x72, 0x6d, 0x5f, 
    0x31, 0x2f, 0x62, 0x61, 0x74, 0x63, 0x68, 0x6e, 0x6f, 0x72, 0x6d, 0x2f, 
    0x6d, 0x75, 0x6c, 0x5f, 0x31, 0x3b, 0x6d, 0x6f, 0x64, 0x65, 0x6c, 0x2f, 
    0x64, 0x65, 0x6e, 0x73, 0x65, 0x5f, 0x31, 0x2f, 0x4d, 0x61, 0x74, 0x4d, 
    0x75, 0x6c, 0x00, 0x00, 0x02, 0x00, 0x00, 0x00, 0x40, 0x00, 0x00, 0x00, 
    0x0c, 0x00, 0x00, 0x00, 0x00, 0x00, 0x16, 0x00, 0x18, 0x00, 0x14, 0x00, 
    0x00, 0x00, 0x10, 0x00, 0x0c, 0x00, 0x08, 0x00, 0x00, 0x00, 0x00, 0x00, 
    0x00, 0x00, 0x07, 0x00, 0x16, 0x00, 0x00, 0x00, 0x00, 0x00, 0x00, 0x01, 
    0x14, 0x00, 0x00, 0x00, 0x14, 0x00, 0x00, 0x00, 0x01, 0x00, 0x00, 0x00, 
    0x30, 0x00, 0x00, 0x00, 0x04, 0x00, 0x04, 0x00, 0x04, 0x00, 0x00, 0x00, 
    0x1d, 0x00, 0x00, 0x00, 0x73, 0x65, 0x72, 0x76, 0x69, 0x6e, 0x67, 0x5f, 
    0x64, 0x65, 0x66, 0x61, 0x75, 0x6c, 0x74, 0x5f, 0x69, 0x6e, 0x70, 0x75, 
    0x74, 0x5f, 0x6c, 0x61, 0x79, 0x65, 0x72, 0x3a, 0x30, 0x00, 0x00, 0x00, 
    0x02, 0x00, 0x00, 0x00, 0x37, 0x00, 0x00, 0x00, 0x0c, 0x00, 0x00, 0x00, 
    0x06, 0x00, 0x00, 0x00, 0x60, 0x00, 0x00, 0x00, 0x44, 0x00, 0x00, 0x00, 
    0x34, 0x00, 0x00, 0x00, 0x24, 0x00, 0x00, 0x00, 0x14, 0x00, 0x00, 0x00, 
    0x04, 0x00, 0x00, 0x00, 0xc4, 0xff, 0xff, 0xff, 0x19, 0x00, 0x00, 0x00, 
    0x00, 0x00, 0x00, 0x19, 0xd0, 0xff, 0xff, 0xff, 0x40, 0x00, 0x00, 0x00, 
    0x00, 0x00, 0x00, 0x40, 0xdc, 0xff, 0xff, 0xff, 0x3d, 0x00, 0x00, 0x00, 
    0x00, 0x00, 0x00, 0x3d, 0xe8, 0xff, 0xff, 0xff, 0x12, 0x00, 0x00, 0x00, 
    0x00, 0x00, 0x00, 0x12, 0xf4, 0xff, 0xff, 0xff, 0x6f, 0x00, 0x00, 0x00, 
    0x00, 0x00, 0x00, 0x6f, 0x0c, 0x00, 0x0c, 0x00, 0x0b, 0x00, 0x00, 0x00, 
    0x00, 0x00, 0x04, 0x00, 0x0c, 0x00, 0x00, 0x00, 0x09, 0x00, 0x00, 0x00, 
    0x00, 0x00, 0x00, 0x09, 
};
const unsigned int model_tflite_len = 14548;
